unsigned char g_magic_wand_model_data[] = {
  0x20, 0x00, 0x00, 0x00, 0x54, 0x46, 0x4c, 0x33, 0x00, 0x00, 0x00, 0x00,
  0x14, 0x00, 0x20, 0x00, 0x1c, 0x00, 0x18, 0x00, 0x14, 0x00, 0x10, 0x00,
  0x0c, 0x00, 0x00, 0x00, 0x08, 0x00, 0x04, 0x00, 0x14, 0x00, 0x00, 0x00,
  0x1c, 0x00, 0x00, 0x00, 0x8c, 0x00, 0x00, 0x00, 0xe4, 0x00, 0x00, 0x00,
  0x30, 0x1b, 0x00, 0x00, 0x40, 0x1b, 0x00, 0x00, 0x40, 0x2b, 0x00, 0x00,
  0x03, 0x00, 0x00, 0x00, 0x01, 0x00, 0x00, 0x00, 0x10, 0x00, 0x00, 0x00,
  0x00, 0x00, 0x0a, 0x00, 0x10, 0x00, 0x0c, 0x00, 0x08, 0x00, 0x04, 0x00,
  0x0a, 0x00, 0x00, 0x00, 0x0c, 0x00, 0x00, 0x00, 0x1c, 0x00, 0x00, 0x00,
  0x38, 0x00, 0x00, 0x00, 0x0f, 0x00, 0x00, 0x00, 0x73, 0x65, 0x72, 0x76,
  0x69, 0x6e, 0x67, 0x5f, 0x64, 0x65, 0x66, 0x61, 0x75, 0x6c, 0x74, 0x00,
  0x01, 0x00, 0x00, 0x00, 0x04, 0x00, 0x00, 0x00, 0x9c, 0xff, 0xff, 0xff,
  0x0f, 0x00, 0x00, 0x00, 0x04, 0x00, 0x00, 0x00, 0x05, 0x00, 0x00, 0x00,
  0x64, 0x65, 0x6e, 0x73, 0x65, 0x00, 0x00, 0x00, 0x01, 0x00, 0x00, 0x00,
  0x04, 0x00, 0x00, 0x00, 0xba, 0xe4, 0xff, 0xff, 0x04, 0x00, 0x00, 0x00,
  0x07, 0x00, 0x00, 0x00, 0x69, 0x6e, 0x70, 0x75, 0x74, 0x5f, 0x31, 0x00,
  0x02, 0x00, 0x00, 0x00, 0x34, 0x00, 0x00, 0x00, 0x04, 0x00, 0x00, 0x00,
  0xdc, 0xff, 0xff, 0xff, 0x12, 0x00, 0x00, 0x00, 0x04, 0x00, 0x00, 0x00,
  0x13, 0x00, 0x00, 0x00, 0x43, 0x4f, 0x4e, 0x56, 0x45, 0x52, 0x53, 0x49,
  0x4f, 0x4e, 0x5f, 0x4d, 0x45, 0x54, 0x41, 0x44, 0x41, 0x54, 0x41, 0x00,
  0x08, 0x00, 0x0c, 0x00, 0x08, 0x00, 0x04, 0x00, 0x08, 0x00, 0x00, 0x00,
  0x11, 0x00, 0x00, 0x00, 0x04, 0x00, 0x00, 0x00, 0x13, 0x00, 0x00, 0x00,
  0x6d, 0x69, 0x6e, 0x5f, 0x72, 0x75, 0x6e, 0x74, 0x69, 0x6d, 0x65, 0x5f,
  0x76, 0x65, 0x72, 0x73, 0x69, 0x6f, 0x6e, 0x00, 0x13, 0x00, 0x00, 0x00,
  0x48, 0x1a, 0x00, 0x00, 0x40, 0x1a, 0x00, 0x00, 0x28, 0x1a, 0x00, 0x00,
  0x04, 0x1a, 0x00, 0x00, 0x54, 0x19, 0x00, 0x00, 0xc4, 0x18, 0x00, 0x00,
  0xb4, 0x06, 0x00, 0x00, 0x64, 0x06, 0x00, 0x00, 0xd4, 0x01, 0x00, 0x00,
  0xa4, 0x01, 0x00, 0x00, 0xbc, 0x00, 0x00, 0x00, 0xb4, 0x00, 0x00, 0x00,
  0xac, 0x00, 0x00, 0x00, 0xa4, 0x00, 0x00, 0x00, 0x9c, 0x00, 0x00, 0x00,
  0x94, 0x00, 0x00, 0x00, 0x8c, 0x00, 0x00, 0x00, 0x6c, 0x00, 0x00, 0x00,
  0x04, 0x00, 0x00, 0x00, 0x7a, 0xe5, 0xff, 0xff, 0x04, 0x00, 0x00, 0x00,
  0x58, 0x00, 0x00, 0x00, 0x0c, 0x00, 0x00, 0x00, 0x08, 0x00, 0x0e, 0x00,
  0x08, 0x00, 0x04, 0x00, 0x08, 0x00, 0x00, 0x00, 0x10, 0x00, 0x00, 0x00,
  0x28, 0x00, 0x00, 0x00, 0x00, 0x00, 0x06, 0x00, 0x08, 0x00, 0x04, 0x00,
  0x06, 0x00, 0x00, 0x00, 0x04, 0x00, 0x00, 0x00, 0x01, 0x00, 0x00, 0x00,
  0xeb, 0x03, 0x00, 0x00, 0x00, 0x00, 0x0a, 0x00, 0x10, 0x00, 0x0c, 0x00,
  0x08, 0x00, 0x04, 0x00, 0x0a, 0x00, 0x00, 0x00, 0x01, 0x00, 0x00, 0x00,
  0x02, 0x00, 0x00, 0x00, 0x04, 0x00, 0x00, 0x00, 0x06, 0x00, 0x00, 0x00,
  0x32, 0x2e, 0x31, 0x35, 0x2e, 0x30, 0x00, 0x00, 0xde, 0xe5, 0xff, 0xff,
  0x04, 0x00, 0x00, 0x00, 0x10, 0x00, 0x00, 0x00, 0x31, 0x2e, 0x31, 0x34,
  0x2e, 0x30, 0x00, 0x00, 0x00, 0x00, 0x00, 0x00, 0x00, 0x00, 0x00, 0x00,
  0x64, 0xd7, 0xff, 0xff, 0x68, 0xd7, 0xff, 0xff, 0x6c, 0xd7, 0xff, 0xff,
  0x70, 0xd7, 0xff, 0xff, 0x74, 0xd7, 0xff, 0xff, 0x78, 0xd7, 0xff, 0xff,
  0x12, 0xe6, 0xff, 0xff, 0x04, 0x00, 0x00, 0x00, 0xd8, 0x00, 0x00, 0x00,
  0xc0, 0x19, 0xe6, 0xc6, 0x1c, 0x1d, 0x10, 0x08, 0x2b, 0x99, 0x27, 0x10,
  0xa4, 0x3e, 0x52, 0xce, 0x2e, 0x5a, 0xa2, 0x31, 0xec, 0x81, 0x31, 0x2f,
  0xb7, 0x25, 0x3a, 0x70, 0x14, 0x0b, 0x71, 0x22, 0x03, 0x1d, 0x19, 0xfc,
  0x2f, 0x3a, 0xf6, 0x17, 0x69, 0xee, 0xf3, 0x57, 0xfe, 0xdf, 0x28, 0x81,
  0xa1, 0x58, 0xc9, 0xab, 0x34, 0xe2, 0x32, 0x09, 0xf9, 0x35, 0x04, 0x95,
  0x12, 0x04, 0x81, 0x2d, 0x16, 0xd7, 0x2a, 0x0d, 0xa1, 0x20, 0x08, 0x8b,
  0xfd, 0x08, 0xca, 0x0f, 0x13, 0xc5, 0xfd, 0x0d, 0xb6, 0xe0, 0x0d, 0x35,
  0xcc, 0x11, 0x4e, 0xe3, 0x11, 0x48, 0xba, 0x0f, 0x45, 0x84, 0x17, 0x79,
  0xad, 0x0c, 0x62, 0x9f, 0x07, 0x1c, 0x81, 0x10, 0x20, 0xad, 0x0b, 0x36,
  0x96, 0xa5, 0x18, 0x46, 0xfe, 0xed, 0x55, 0x05, 0xeb, 0x11, 0x1c, 0xd5,
  0x7f, 0x1b, 0xe2, 0x5b, 0x00, 0xdc, 0xfc, 0x1a, 0x14, 0x35, 0x26, 0x22,
  0x30, 0x05, 0x26, 0x3a, 0x24, 0xb8, 0x58, 0x16, 0xb5, 0x1c, 0x0f, 0x81,
  0x0a, 0x36, 0xd0, 0x11, 0x4b, 0xd1, 0xfd, 0x29, 0xb6, 0xdd, 0x24, 0x8c,
  0xd8, 0x35, 0xc2, 0xda, 0x2c, 0x8e, 0xbf, 0x21, 0xba, 0xd6, 0x21, 0xe8,
  0x36, 0xec, 0xc5, 0x81, 0x2c, 0x30, 0x95, 0x36, 0x7a, 0xd4, 0x1b, 0x53,
  0x9a, 0x36, 0x1f, 0x8f, 0x42, 0x7e, 0xc1, 0x2e, 0x6b, 0x56, 0xe2, 0xf7,
  0xfb, 0x81, 0xd5, 0x89, 0xa4, 0xb2, 0xff, 0xf3, 0xec, 0x2b, 0x1a, 0xf8,
  0x22, 0x1a, 0xfb, 0xe0, 0x1b, 0xf7, 0x22, 0x2b, 0xfb, 0xfb, 0x29, 0xfd,
  0xf6, 0xe6, 0xff, 0xff, 0x04, 0x00, 0x00, 0x00, 0x20, 0x00, 0x00, 0x00,
  0xed, 0xfe, 0xff, 0xff, 0x74, 0xfe, 0xff, 0xff, 0xb6, 0xff, 0xff, 0xff,
  0xa2, 0xfe, 0xff, 0xff, 0x6a, 0xfe, 0xff, 0xff, 0xc9, 0xff, 0xff, 0xff,
  0x30, 0xfc, 0xff, 0xff, 0xba, 0xff, 0xff, 0xff, 0x22, 0xe7, 0xff, 0xff,
  0x04, 0x00, 0x00, 0x00, 0x80, 0x04, 0x00, 0x00, 0x14, 0xdc, 0x98, 0xff,
  0xd3, 0xa9, 0xf0, 0xe4, 0x43, 0x65, 0x0e, 0xf2, 0xf3, 0x3b, 0x37, 0xc4,
  0x22, 0x3f, 0x3a, 0xcd, 0x15, 0x4f, 0x44, 0x01, 0xde, 0xf6, 0xa3, 0xee,
  0xa2, 0xd7, 0xde, 0xe1, 0x1a, 0x6c, 0x1d, 0xf0, 0xe6, 0x49, 0x15, 0xc9,
  0x45, 0x41, 0x17, 0xcb, 0xc8, 0x7f, 0x1d, 0x1c, 0xfc, 0x30, 0xe9, 0xf4,
  0xb4, 0x22, 0xfd, 0xfa, 0x21, 0x3d, 0x02, 0xd4, 0xed, 0x5c, 0x0f, 0xf8,
  0x2a, 0x16, 0xec, 0xe9, 0xff, 0x25, 0x26, 0x30, 0x05, 0xfb, 0x86, 0x08,
  0xb6, 0xe1, 0x12, 0x1e, 0x2e, 0xd7, 0x95, 0x43, 0x04, 0xb2, 0x3c, 0xec,
  0x0a, 0xd9, 0xe2, 0x1c, 0x2b, 0xd5, 0x18, 0x13, 0x35, 0x23, 0x98, 0x59,
  0xf7, 0x13, 0x4a, 0x5d, 0x2e, 0x04, 0x81, 0x6f, 0x2d, 0xeb, 0x4e, 0x2a,
  0x08, 0xfc, 0xda, 0x38, 0x13, 0xe4, 0xf1, 0x2e, 0x5b, 0x5c, 0xdf, 0x2b,
  0xb3, 0x31, 0x2a, 0x21, 0x27, 0x12, 0xd9, 0x32, 0x18, 0x11, 0x44, 0x6a,
  0xf6, 0xf1, 0x05, 0xf6, 0x0b, 0xfb, 0xf4, 0x13, 0xfa, 0xff, 0x20, 0x01,
  0x1b, 0xed, 0x02, 0x00, 0x03, 0x35, 0x6a, 0xab, 0x60, 0x2a, 0x16, 0xe5,
  0xd3, 0x0b, 0x2f, 0x92, 0x02, 0x27, 0xcd, 0xe7, 0xfb, 0x13, 0x24, 0xf6,
  0x56, 0x0e, 0x0b, 0x40, 0x1e, 0x10, 0x62, 0xe3, 0x7f, 0x0f, 0x38, 0xf4,
  0xfd, 0xee, 0x32, 0xd6, 0x12, 0x0e, 0x1d, 0xe9, 0x01, 0x19, 0x17, 0xfd,
  0xfe, 0xfd, 0x00, 0x05, 0x08, 0x1a, 0x54, 0xff, 0x38, 0x57, 0x03, 0xf6,
  0x01, 0x25, 0x26, 0xfc, 0xfd, 0x0c, 0xf2, 0x09, 0xf5, 0x0c, 0x1c, 0xf4,
  0x15, 0x09, 0xf0, 0x11, 0xee, 0x07, 0x1f, 0xcf, 0x15, 0x11, 0xe3, 0x02,
  0xf5, 0x09, 0x0f, 0xcf, 0x0c, 0x13, 0xed, 0x11, 0xed, 0x0f, 0x1e, 0xda,
  0x1b, 0x18, 0xe6, 0x0f, 0xd3, 0x0e, 0x31, 0x81, 0x24, 0x1e, 0xd8, 0x1f,
  0xf3, 0x0c, 0x23, 0xb0, 0x12, 0x17, 0xe5, 0x1c, 0xfb, 0x04, 0x05, 0xf5,
  0x0c, 0x01, 0xfd, 0x07, 0xdb, 0x0e, 0x1c, 0xc1, 0x08, 0x0e, 0xe1, 0x1f,
  0xe7, 0x07, 0x08, 0xcc, 0x05, 0x0f, 0xda, 0x12, 0x07, 0x01, 0xf4, 0x14,
  0xe9, 0xfb, 0x0a, 0xe7, 0x15, 0x08, 0xf4, 0x1b, 0xf2, 0x03, 0x16, 0x03,
  0x15, 0x07, 0xf1, 0x15, 0x02, 0xf9, 0x13, 0x09, 0xeb, 0xd7, 0xd7, 0x06,
  0xe3, 0xc1, 0xe1, 0xcc, 0x15, 0x0f, 0xed, 0x17, 0xce, 0xf5, 0x0d, 0xa4,
  0x1b, 0x0e, 0xe7, 0x24, 0xf3, 0xf8, 0x16, 0x0e, 0xe2, 0x02, 0x11, 0xf2,
  0xe4, 0xff, 0xf1, 0x06, 0xbf, 0xa5, 0x92, 0xe3, 0x92, 0x81, 0xbe, 0x87,
  0xe9, 0xd9, 0xbf, 0xf5, 0xb4, 0xca, 0xdb, 0xaa, 0xf9, 0xeb, 0x1c, 0x10,
  0x0a, 0xf4, 0xf3, 0x2d, 0xf3, 0xf6, 0x10, 0x10, 0x07, 0xed, 0xf2, 0x68,
  0x12, 0xef, 0x17, 0x22, 0x30, 0xf0, 0x0d, 0x0c, 0xf5, 0xfc, 0x1b, 0xfc,
  0x03, 0xff, 0xfd, 0x7f, 0xdc, 0x0e, 0x70, 0xa4, 0x61, 0x18, 0xcb, 0x68,
  0xca, 0x18, 0x71, 0x9b, 0x3b, 0x18, 0xcb, 0x3c, 0x00, 0xfa, 0xf1, 0xfd,
  0x06, 0xff, 0xfb, 0x18, 0x03, 0x18, 0x3e, 0xd6, 0x45, 0x24, 0x06, 0x3b,
  0xec, 0x13, 0x2f, 0xab, 0x21, 0x0b, 0xf0, 0x0f, 0x12, 0x08, 0x03, 0x0d,
  0xfd, 0x0f, 0x15, 0xeb, 0x14, 0x0c, 0x05, 0x15, 0xf8, 0x07, 0x14, 0xc5,
  0xd1, 0xbf, 0xde, 0xed, 0xba, 0xe4, 0xda, 0xa3, 0x0f, 0x09, 0x08, 0x12,
  0x05, 0x0c, 0x0f, 0xd7, 0x14, 0x09, 0x04, 0x20, 0xf8, 0x1b, 0x14, 0xc2,
  0xb7, 0xa8, 0xca, 0xe4, 0x97, 0xb3, 0xc8, 0x81, 0x09, 0x09, 0x0a, 0x00,
  0xf7, 0x08, 0x0b, 0xdd, 0x0b, 0xff, 0xf8, 0x0c, 0xf2, 0x0b, 0x16, 0xbc,
  0xef, 0xd2, 0xdf, 0x1f, 0xbb, 0xd6, 0x00, 0xcb, 0xfa, 0x03, 0xfc, 0xed,
  0xed, 0x0c, 0xf8, 0x2a, 0x01, 0x00, 0x05, 0xfd, 0xf8, 0x0b, 0x03, 0x1b,
  0xfb, 0xfa, 0xf9, 0x04, 0x07, 0xfc, 0x0c, 0x1a, 0x15, 0xf3, 0x8f, 0x0c,
  0x07, 0xdd, 0x31, 0xfb, 0x28, 0xdc, 0xb4, 0x0f, 0x48, 0xd6, 0x25, 0x0e,
  0x20, 0xeb, 0xc2, 0x15, 0x37, 0xcb, 0x39, 0x02, 0x18, 0xda, 0x81, 0x39,
  0xcd, 0x99, 0x0f, 0xc7, 0x1f, 0x04, 0xd6, 0x44, 0xec, 0xe1, 0x1b, 0x12,
  0x20, 0x0e, 0xe8, 0x36, 0x0a, 0xed, 0x16, 0xff, 0x04, 0x09, 0x0d, 0x08,
  0x0f, 0x0b, 0x02, 0x0e, 0xfc, 0x0b, 0x18, 0x09, 0x29, 0x06, 0xfb, 0x08,
  0xea, 0x06, 0x13, 0xfb, 0x16, 0x06, 0xe6, 0xff, 0xf2, 0x14, 0x17, 0xec,
  0x15, 0x0f, 0xec, 0x07, 0xd8, 0x05, 0x0b, 0xa3, 0x24, 0x0b, 0xd7, 0x0b,
  0xd7, 0x00, 0x0c, 0xaf, 0x0a, 0x0c, 0xe3, 0xfa, 0xdb, 0x06, 0x17, 0xb6,
  0xf9, 0x11, 0xd9, 0xfd, 0xd0, 0x05, 0x06, 0x81, 0x02, 0x08, 0xc6, 0xea,
  0xe2, 0x05, 0x01, 0xa3, 0x01, 0x0f, 0xde, 0xfa, 0x02, 0xfe, 0x08, 0x0b,
  0x07, 0xf9, 0x07, 0x16, 0xd7, 0xce, 0xd6, 0xe9, 0xe8, 0xe6, 0xf7, 0xba,
  0x9b, 0x8c, 0x85, 0xa0, 0xc3, 0x88, 0x88, 0x81, 0x11, 0x11, 0x22, 0x29,
  0x0f, 0x0a, 0x1f, 0xfe, 0xfd, 0x09, 0x03, 0x24, 0xe3, 0x02, 0x15, 0xd1,
  0xa7, 0x9b, 0xa8, 0xb7, 0x83, 0xb0, 0xaf, 0xa3, 0x0c, 0x19, 0x17, 0x0e,
  0x01, 0x1a, 0x09, 0xe4, 0x1f, 0x13, 0x0f, 0x13, 0xca, 0x1d, 0x1a, 0xdb,
  0xbe, 0x93, 0x85, 0xd8, 0x9c, 0xa8, 0xd4, 0xa3, 0x07, 0xfc, 0xed, 0x0b,
  0xee, 0x10, 0x0d, 0x15, 0xe4, 0x06, 0x0a, 0xe2, 0x0e, 0x0b, 0xf5, 0xfe,
  0xc2, 0xfc, 0x31, 0x81, 0x12, 0x0d, 0xb5, 0x06, 0x30, 0x39, 0xed, 0x10,
  0xdb, 0x24, 0x35, 0x17, 0x18, 0x34, 0x53, 0x1d, 0x15, 0x62, 0x59, 0x59,
  0xdc, 0xdb, 0xec, 0xd5, 0x25, 0x09, 0x0d, 0x12, 0xfe, 0x18, 0xf3, 0xf6,
  0xd5, 0x05, 0xf8, 0x03, 0x26, 0x45, 0x38, 0x12, 0x17, 0x75, 0x20, 0x29,
  0x06, 0xf8, 0xf4, 0xfb, 0xf4, 0x14, 0x00, 0x1a, 0xec, 0xaf, 0x81, 0x03,
  0x8b, 0xc9, 0xe3, 0x90, 0xca, 0xb2, 0xbc, 0xf4, 0x85, 0xae, 0x9e, 0xd1,
  0xcd, 0x9c, 0xaf, 0x10, 0x8e, 0x9c, 0xb9, 0xf2, 0xc0, 0xac, 0xc7, 0xe2,
  0x19, 0xb9, 0xe9, 0x01, 0x91, 0xb7, 0xe6, 0xa6, 0x02, 0xcc, 0xba, 0x0e,
  0xb6, 0xc8, 0xcf, 0x93, 0x08, 0xe1, 0xc3, 0xdd, 0x03, 0x24, 0x27, 0xfd,
  0x2e, 0x1b, 0xfb, 0x39, 0x14, 0x35, 0x26, 0x01, 0x44, 0x26, 0x1d, 0x44,
  0x1d, 0x24, 0x08, 0x0b, 0x20, 0x13, 0x29, 0x37, 0xf7, 0x1b, 0x24, 0x03,
  0x12, 0x24, 0x06, 0x44, 0x15, 0x1f, 0x0d, 0x04, 0x16, 0x0c, 0x14, 0x45,
  0x0b, 0xfc, 0x06, 0x03, 0xfd, 0x08, 0x0a, 0x3c, 0x15, 0x1d, 0xfd, 0x2a,
  0xf1, 0x22, 0x0e, 0x55, 0x23, 0x33, 0xf9, 0x25, 0x05, 0x2a, 0x0e, 0x54,
  0x0d, 0x1d, 0x0a, 0x0a, 0xfd, 0x2e, 0x13, 0x6c, 0x8f, 0xdb, 0xe6, 0xb3,
  0x81, 0xd3, 0x81, 0xa2, 0xa7, 0xce, 0x05, 0x88, 0xba, 0xf8, 0xa1, 0xc6,
  0xaa, 0xd0, 0x19, 0x92, 0xc2, 0xe4, 0xbb, 0xe9, 0x04, 0x02, 0xf6, 0xec,
  0x0c, 0x13, 0x02, 0xe7, 0x01, 0x03, 0xf9, 0xd3, 0xc9, 0x22, 0xe6, 0x08,
  0x15, 0x00, 0xa9, 0x16, 0xe9, 0xf6, 0x0c, 0xf2, 0x26, 0x37, 0x25, 0xf3,
  0x7f, 0x3d, 0x20, 0xfd, 0x04, 0x31, 0x27, 0xbb, 0xe8, 0x2b, 0xf2, 0x2b,
  0x2b, 0x30, 0xc5, 0x2b, 0xff, 0x0c, 0x2e, 0x24, 0x1f, 0x63, 0x18, 0xd4,
  0xfe, 0x53, 0x15, 0xea, 0x0f, 0x38, 0xe2, 0xec, 0xe2, 0x32, 0x15, 0xe8,
  0x26, 0x24, 0xc5, 0x29, 0xf0, 0x28, 0x2b, 0x1b, 0x99, 0xbe, 0xea, 0xc6,
  0x01, 0xcc, 0xb6, 0x05, 0x90, 0xaa, 0xcb, 0xa7, 0xcf, 0x9c, 0x81, 0xff,
  0xd2, 0xbd, 0xbf, 0xde, 0x09, 0xb5, 0xe1, 0x10, 0x00, 0x1c, 0x16, 0xf4,
  0x18, 0x1f, 0xf2, 0x47, 0x12, 0x2a, 0x19, 0xf4, 0x37, 0x12, 0x07, 0x5f,
  0x0d, 0x1c, 0x05, 0xff, 0x16, 0x12, 0x09, 0x43, 0x04, 0x00, 0xf5, 0x03,
  0x09, 0x01, 0x0a, 0x32, 0x10, 0x06, 0xef, 0x03, 0x0f, 0xfe, 0x13, 0x54,
  0x0c, 0x09, 0xc5, 0x04, 0x02, 0xf2, 0x10, 0x27, 0xfb, 0xfe, 0x0a, 0xf2,
  0xf8, 0x08, 0xf5, 0x51, 0x07, 0xf7, 0xf2, 0xec, 0xdc, 0xff, 0x18, 0x28,
  0x02, 0x06, 0xfc, 0xfe, 0x30, 0x05, 0xe5, 0xfa, 0x15, 0x18, 0xc9, 0xfd,
  0x94, 0x14, 0x0e, 0x3b, 0x64, 0x47, 0x06, 0x3f, 0x62, 0x35, 0x5a, 0x7f,
  0x2e, 0x3e, 0x1b, 0xe3, 0x5a, 0x4c, 0x29, 0x5e, 0xf0, 0xc1, 0xe1, 0x07,
  0xc0, 0xc8, 0xf9, 0xdf, 0xf3, 0x29, 0x0d, 0xe4, 0x18, 0x29, 0xe1, 0x19,
  0x06, 0x2d, 0x24, 0xfb, 0x18, 0x39, 0x02, 0x1f, 0xae, 0xeb, 0xff, 0xff,
  0x04, 0x00, 0x00, 0x00, 0x40, 0x00, 0x00, 0x00, 0xe5, 0xfc, 0xff, 0xff,
  0x07, 0xf9, 0xff, 0xff, 0x5e, 0xff, 0xff, 0xff, 0xf7, 0xff, 0xff, 0xff,
  0x9d, 0xff, 0xff, 0xff, 0xcd, 0xff, 0xff, 0xff, 0x18, 0x02, 0x00, 0x00,
  0xc1, 0xff, 0xff, 0xff, 0x0c, 0x00, 0x00, 0x00, 0x71, 0x04, 0x00, 0x00,
  0x33, 0xfd, 0xff, 0xff, 0xf5, 0xfe, 0xff, 0xff, 0x92, 0xff, 0xff, 0xff,
  0xcd, 0xff, 0xff, 0xff, 0xc8, 0xff, 0xff, 0xff, 0xe5, 0xff, 0xff, 0xff,
  0xfa, 0xeb, 0xff, 0xff, 0x04, 0x00, 0x00, 0x00, 0x00, 0x12, 0x00, 0x00,
  0x13, 0x0a, 0x03, 0xfe, 0xf1, 0x01, 0xff, 0x12, 0xff, 0x08, 0xfb, 0xf7,
  0xfd, 0x09, 0x00, 0x04, 0x18, 0x0d, 0x11, 0x05, 0xa8, 0xf9, 0x12, 0xc5,
  0x02, 0x08, 0x0e, 0xbd, 0xef, 0x0f, 0xb3, 0xec, 0xfe, 0xd2, 0xe2, 0xfd,
  0xd4, 0xf9, 0xf0, 0x04, 0xfa, 0x0f, 0xde, 0x14, 0xfa, 0xfd, 0x01, 0x08,
  0x1c, 0xfe, 0x08, 0xf7, 0xcd, 0xf4, 0x0c, 0xf3, 0x0d, 0x0f, 0x00, 0xc5,
  0x04, 0x0a, 0xdf, 0x00, 0xe4, 0x0b, 0x19, 0x02, 0x91, 0xdf, 0x1a, 0xe6,
  0x0c, 0x03, 0x0e, 0xaa, 0xe5, 0x13, 0xb3, 0xd6, 0x08, 0xec, 0xd6, 0xd7,
  0x11, 0xe4, 0xec, 0x14, 0xfd, 0xfa, 0xd8, 0x0c, 0xed, 0x14, 0x0a, 0x05,
  0x1a, 0xe9, 0x0b, 0x09, 0xde, 0x08, 0x05, 0xeb, 0x04, 0x15, 0x08, 0xe4,
  0x1f, 0x0a, 0xd6, 0x11, 0xc7, 0xe4, 0xf1, 0xec, 0xb4, 0xab, 0x20, 0xa9,
  0x04, 0x06, 0xfc, 0xc8, 0x14, 0xf1, 0x81, 0xc7, 0x06, 0xf0, 0xbd, 0xe1,
  0x27, 0xf2, 0xf4, 0x1b, 0xe0, 0x0a, 0xc7, 0x03, 0xf2, 0x0c, 0x02, 0xf9,
  0xdb, 0xe3, 0xde, 0xf8, 0x0c, 0x0a, 0xed, 0xe8, 0xf5, 0xf3, 0xcf, 0x03,
  0x91, 0xd7, 0xf4, 0xdc, 0xe1, 0xeb, 0x05, 0x19, 0xf0, 0x04, 0x07, 0x06,
  0x0b, 0x09, 0xfd, 0x29, 0xff, 0xf0, 0x1b, 0xec, 0xda, 0xec, 0xf7, 0x12,
  0xf1, 0x17, 0x0a, 0x05, 0x13, 0x25, 0xc8, 0x0f, 0xd9, 0xe5, 0x03, 0xe0,
  0x12, 0x08, 0x1b, 0x0a, 0x09, 0x18, 0xfd, 0x04, 0x03, 0x0c, 0x11, 0x30,
  0x15, 0x0a, 0xfa, 0x10, 0xff, 0x0f, 0x11, 0xec, 0x24, 0xdc, 0x00, 0xfc,
  0xf6, 0x0c, 0x03, 0x2a, 0xfc, 0x06, 0xf9, 0xf9, 0x05, 0x09, 0x06, 0x01,
  0xff, 0xfe, 0x1a, 0x0b, 0xeb, 0x29, 0x1f, 0x05, 0x17, 0xfc, 0xf7, 0x19,
  0x0d, 0xd7, 0xda, 0xd2, 0x09, 0xb7, 0x00, 0xbc, 0x0d, 0xf8, 0xb9, 0x00,
  0x1b, 0x89, 0xeb, 0xe8, 0xbd, 0xcf, 0xba, 0xd5, 0xd9, 0xaa, 0x2d, 0xbe,
  0x08, 0x18, 0xd1, 0x05, 0x02, 0xc9, 0xe2, 0xa0, 0xe4, 0x95, 0xaa, 0xba,
  0xf0, 0xee, 0xfe, 0xde, 0xe1, 0x30, 0x81, 0x0e, 0xe1, 0xc4, 0xe9, 0xb5,
  0x06, 0x1b, 0x19, 0x33, 0xee, 0x22, 0xf3, 0x1d, 0x62, 0xf2, 0x05, 0x01,
  0x14, 0xfc, 0x34, 0xef, 0xd0, 0x0e, 0x2a, 0x4d, 0xf3, 0x01, 0x81, 0x0e,
  0x29, 0xf6, 0x1c, 0x03, 0xe9, 0x1e, 0x46, 0x0e, 0xd9, 0x0f, 0x05, 0x2c,
  0x67, 0xed, 0xc2, 0x22, 0x0a, 0xe7, 0xf5, 0x0c, 0xf4, 0xf6, 0x16, 0x11,
  0x03, 0x07, 0xfe, 0x54, 0x30, 0x1d, 0xe1, 0x2d, 0x26, 0xeb, 0x25, 0xdc,
  0xfe, 0x05, 0x04, 0x06, 0xf9, 0x2e, 0xff, 0x30, 0xe8, 0xf2, 0xee, 0x14,
  0xfb, 0xf2, 0x1c, 0xcd, 0x9b, 0x11, 0xe8, 0x02, 0x27, 0xe6, 0x21, 0x4f,
  0x48, 0x21, 0x8d, 0x15, 0x28, 0x95, 0x06, 0xd9, 0xf0, 0x15, 0xf8, 0x07,
  0x11, 0x2a, 0x20, 0x30, 0xb9, 0x14, 0xfc, 0x38, 0x37, 0x1e, 0x1e, 0xee,
  0xf2, 0x38, 0x06, 0xf2, 0x16, 0x36, 0x19, 0x02, 0x28, 0x3a, 0xf4, 0x2b,
  0x21, 0xfb, 0x3c, 0xe8, 0xb6, 0x34, 0x1b, 0x2d, 0x19, 0x04, 0x0a, 0x64,
  0x04, 0x34, 0xcf, 0x3c, 0xe9, 0xb9, 0x08, 0x12, 0xc3, 0x29, 0xfa, 0x18,
  0xfb, 0xeb, 0xee, 0x01, 0xeb, 0x01, 0xcd, 0x2e, 0xeb, 0xbf, 0xed, 0x0f,
  0xf8, 0xe7, 0x1f, 0x03, 0x12, 0x09, 0x00, 0x10, 0x20, 0x06, 0xf7, 0x22,
  0x08, 0xf8, 0x13, 0xec, 0xfe, 0xf8, 0xf7, 0x0c, 0xbc, 0xc6, 0xf0, 0x00,
  0x81, 0xd7, 0xfc, 0xc5, 0x03, 0x0e, 0xeb, 0xf4, 0xf6, 0xfe, 0xef, 0xb5,
  0x00, 0xf8, 0xf4, 0xff, 0xe9, 0x12, 0xd2, 0xe7, 0xff, 0xdc, 0xd4, 0xec,
  0x04, 0xfc, 0xfb, 0x04, 0x1d, 0x0c, 0x0c, 0x1e, 0xf4, 0x1a, 0x18, 0x10,
  0x1e, 0x00, 0x0d, 0xa1, 0xfd, 0x0a, 0xcc, 0x0d, 0x8b, 0xe8, 0xf0, 0x13,
  0xb4, 0xc6, 0x14, 0xed, 0x22, 0x30, 0xe8, 0xbb, 0xd3, 0xe2, 0xd0, 0x90,
  0xf8, 0xb2, 0xf4, 0x0c, 0xf7, 0x07, 0xd6, 0xdf, 0x00, 0xf6, 0xe6, 0xef,
  0x13, 0xcb, 0xf2, 0x01, 0xfb, 0xfb, 0x12, 0x21, 0x20, 0x26, 0xf5, 0x19,
  0x0f, 0x13, 0x16, 0x04, 0x20, 0x07, 0xff, 0x06, 0xbf, 0xff, 0xe5, 0xd8,
  0xe2, 0xa7, 0x05, 0x0a, 0x11, 0x16, 0xe7, 0xf4, 0xe4, 0xde, 0xd2, 0xcf,
  0xf1, 0x01, 0x04, 0x09, 0x22, 0x10, 0xf7, 0x04, 0x01, 0x0b, 0x01, 0x13,
  0x0a, 0x03, 0x16, 0x09, 0xd3, 0xf7, 0xf3, 0x0a, 0xeb, 0x08, 0xda, 0x00,
  0xef, 0x03, 0x02, 0xf9, 0xcb, 0x01, 0x1b, 0xfb, 0xc0, 0xed, 0xf9, 0x12,
  0xcc, 0x08, 0xde, 0xb5, 0xdf, 0xee, 0xe5, 0xfc, 0x81, 0xe0, 0xee, 0xd3,
  0xf3, 0x02, 0x02, 0xfd, 0x1c, 0xef, 0xfc, 0x20, 0xfb, 0xde, 0x09, 0xe3,
  0x09, 0xf0, 0xfe, 0xfb, 0x06, 0x03, 0x05, 0x0e, 0x31, 0xf6, 0xfc, 0x05,
  0x06, 0x16, 0x06, 0x36, 0x13, 0xee, 0x17, 0xfe, 0xfe, 0xff, 0x0c, 0xfa,
  0x21, 0xf4, 0xfc, 0x01, 0xe4, 0xf9, 0x13, 0x16, 0x22, 0x07, 0x0d, 0xfb,
  0xd3, 0xf6, 0xe7, 0xff, 0x01, 0x07, 0xf5, 0xad, 0x0d, 0xf9, 0xb9, 0xd1,
  0xe7, 0xf6, 0x13, 0xaa, 0x0a, 0xd8, 0xeb, 0xe3, 0x12, 0xc8, 0x0d, 0xc8,
  0x0a, 0xee, 0xce, 0xbb, 0x0e, 0xd9, 0xd4, 0xdc, 0x04, 0x02, 0xf3, 0xde,
  0x0f, 0xee, 0xf4, 0xe8, 0xe3, 0xdd, 0x01, 0xd3, 0x15, 0x04, 0x13, 0x07,
  0xfc, 0x1a, 0xf0, 0x10, 0x2a, 0x19, 0xf6, 0x29, 0x60, 0x02, 0x07, 0x0f,
  0x09, 0xf3, 0x10, 0xff, 0x05, 0x16, 0x0c, 0x59, 0xf4, 0x3a, 0xf7, 0x36,
  0x46, 0xe3, 0x09, 0xe1, 0x03, 0x0b, 0xef, 0x05, 0x0d, 0x05, 0x0e, 0x3a,
  0x28, 0x09, 0xaf, 0x14, 0x29, 0xc8, 0xf6, 0xfe, 0xf9, 0x02, 0xfc, 0xe2,
  0x0b, 0x0a, 0x17, 0x3f, 0x15, 0x27, 0xf5, 0x1e, 0x5c, 0xfa, 0x16, 0xfe,
  0x11, 0xfa, 0xf8, 0x12, 0xfe, 0x1e, 0x0a, 0x5f, 0xda, 0x1e, 0xf0, 0x02,
  0x58, 0xf6, 0x14, 0xd0, 0xe2, 0xee, 0x05, 0xf6, 0x10, 0x00, 0x17, 0x31,
  0x10, 0x19, 0x9e, 0x0e, 0x32, 0x81, 0xf6, 0xe7, 0xf3, 0x0a, 0x01, 0xfe,
  0xfe, 0x2c, 0x13, 0x3f, 0xd6, 0x1e, 0xf8, 0x27, 0x28, 0x0c, 0x0b, 0x12,
  0xe0, 0xff, 0x2c, 0xfc, 0x0b, 0x1e, 0x22, 0x41, 0xdf, 0x07, 0xfe, 0x42,
  0x26, 0xfd, 0x2f, 0xef, 0xbb, 0x0d, 0x12, 0x0c, 0x1a, 0x07, 0x1a, 0x20,
  0xfd, 0x28, 0xbc, 0x29, 0xe9, 0xd1, 0x0a, 0x00, 0xe8, 0x23, 0x03, 0x09,
  0x0c, 0xea, 0xfe, 0xfc, 0xff, 0xf6, 0xdc, 0x03, 0xf2, 0x0b, 0x01, 0xc0,
  0x0b, 0xff, 0xc6, 0x0e, 0x07, 0x07, 0x0a, 0xe5, 0x03, 0xf3, 0xff, 0x0e,
  0xf2, 0x15, 0x10, 0xfc, 0x0f, 0x03, 0xee, 0x07, 0x0c, 0x01, 0x06, 0x07,
  0x04, 0xfc, 0xf5, 0x0b, 0x06, 0xfc, 0xfd, 0xff, 0x0b, 0x0f, 0x03, 0x08,
  0x16, 0x9e, 0xf1, 0xe4, 0x0f, 0xea, 0xd5, 0xc1, 0xf5, 0xf2, 0xb5, 0xcc,
  0x03, 0xed, 0xb3, 0xf7, 0x0c, 0xec, 0xff, 0xfe, 0x0a, 0xf8, 0x1b, 0xe3,
  0xf1, 0x0a, 0xfe, 0xec, 0x0c, 0x06, 0xf7, 0x0c, 0x14, 0xf7, 0xfb, 0xf2,
  0xf2, 0x06, 0xf0, 0xf8, 0xf5, 0xd1, 0xf9, 0xec, 0x0a, 0x10, 0xd4, 0x0c,
  0xb7, 0xc8, 0xa5, 0xb0, 0xa1, 0x81, 0x9d, 0xb8, 0x9f, 0xa3, 0xbe, 0xcc,
  0x9f, 0xb6, 0xcf, 0xb0, 0x16, 0xaf, 0xf7, 0x05, 0xe1, 0xef, 0x9d, 0xc0,
  0xe8, 0xa7, 0xf1, 0xa8, 0x10, 0xe2, 0x99, 0xf7, 0x03, 0x08, 0xf6, 0xf9,
  0xe0, 0x0a, 0x86, 0xf2, 0xf3, 0x8c, 0x01, 0xd4, 0x0a, 0x19, 0xdd, 0x0a,
  0x1d, 0x02, 0x02, 0xf2, 0xec, 0x08, 0x0b, 0xfd, 0xf0, 0x07, 0xfe, 0xeb,
  0xfd, 0x17, 0x00, 0x12, 0x0c, 0x0a, 0xf5, 0xfc, 0xc3, 0xe8, 0x0c, 0xb3,
  0x13, 0xff, 0xf2, 0x8b, 0xf6, 0x1f, 0x81, 0xe3, 0x03, 0xdd, 0xd7, 0xef,
  0xed, 0xf1, 0xf7, 0x07, 0xf2, 0x12, 0xf0, 0x15, 0xf0, 0x0b, 0x08, 0x07,
  0x1c, 0x0d, 0x16, 0xef, 0xc1, 0xe7, 0xfb, 0xfb, 0x13, 0x17, 0x0c, 0xb6,
  0x02, 0x18, 0xce, 0xed, 0x9c, 0xf9, 0xf2, 0xf9, 0xa2, 0xc6, 0x1c, 0xf3,
  0x14, 0x0d, 0xf1, 0xa8, 0xf4, 0x03, 0xd3, 0xbd, 0x04, 0x01, 0xed, 0xe9,
  0x20, 0xf6, 0xec, 0x22, 0x0d, 0xfa, 0xff, 0x05, 0xdf, 0x1a, 0xfd, 0x04,
  0x17, 0x06, 0x17, 0xfd, 0x0a, 0xed, 0xf5, 0xc8, 0x13, 0x03, 0x0d, 0xe5,
  0x1d, 0x07, 0xb2, 0x12, 0xc1, 0xe9, 0xc6, 0xc0, 0xdd, 0x91, 0x0b, 0xab,
  0xf0, 0x20, 0xe3, 0xe5, 0xe9, 0xda, 0x9b, 0xa5, 0xf9, 0x17, 0xc4, 0xe9,
  0x2e, 0xd7, 0x19, 0x30, 0x0e, 0x18, 0xd6, 0xf9, 0xf2, 0x1b, 0xfe, 0xea,
  0x30, 0x18, 0x27, 0x1b, 0xdc, 0xdb, 0xba, 0x00, 0x06, 0xa7, 0x11, 0xb3,
  0x2b, 0x13, 0x33, 0x1c, 0x10, 0x01, 0x16, 0x0f, 0xfe, 0x13, 0xe6, 0xec,
  0x11, 0x9a, 0xf7, 0xa2, 0x2d, 0x10, 0x33, 0x14, 0x0b, 0xee, 0xfb, 0x12,
  0x06, 0xf9, 0x02, 0x0a, 0x24, 0xcf, 0xf8, 0x03, 0x17, 0xed, 0x5e, 0xff,
  0x87, 0xc1, 0xaa, 0xbe, 0xec, 0xde, 0xc2, 0xea, 0x97, 0xf0, 0xbf, 0x49,
  0x9b, 0xb5, 0x2a, 0x93, 0x97, 0xdb, 0xc6, 0xda, 0xf0, 0xeb, 0xc8, 0x20,
  0xb8, 0xeb, 0xda, 0x5e, 0xa8, 0xf6, 0x34, 0x9b, 0xb2, 0x1d, 0xd0, 0xd8,
  0xd5, 0xf5, 0xb4, 0xef, 0xb8, 0x04, 0xd6, 0x2a, 0x93, 0xb5, 0x50, 0xaf,
  0x24, 0x17, 0x0c, 0xc9, 0x15, 0xf7, 0xe9, 0x16, 0x9b, 0xf0, 0x1e, 0x21,
  0x7d, 0x1d, 0x1f, 0x22, 0x13, 0x11, 0xf6, 0xbf, 0x0c, 0xf0, 0x8f, 0x0e,
  0x04, 0xb0, 0x0f, 0x20, 0x7f, 0x17, 0x17, 0x03, 0x18, 0x0f, 0x0e, 0xd0,
  0xf1, 0x08, 0xd4, 0x0e, 0xc2, 0xf6, 0x28, 0x14, 0x6c, 0x04, 0x0b, 0x27,
  0xf9, 0x0b, 0x09, 0x07, 0xe2, 0xf8, 0xfb, 0x0f, 0x43, 0xe2, 0x00, 0x0a,
  0x20, 0x09, 0x1f, 0xfe, 0xfa, 0xed, 0x1a, 0x3c, 0xd4, 0x03, 0xd0, 0x02,
  0x4e, 0xdb, 0xf0, 0xf1, 0xf5, 0x2e, 0x0f, 0xf9, 0xf5, 0x0f, 0xf5, 0x23,
  0xf4, 0x23, 0x0a, 0x01, 0x23, 0xfd, 0x00, 0x1e, 0x12, 0x04, 0x08, 0xff,
  0xf8, 0x1d, 0x08, 0x2e, 0xc0, 0x28, 0xe6, 0x09, 0x3d, 0xc6, 0xf2, 0x02,
  0x22, 0xff, 0x54, 0x14, 0xed, 0xfe, 0x0b, 0x5a, 0xc2, 0x41, 0x99, 0xf7,
  0x75, 0xb6, 0xf3, 0xd3, 0x19, 0x0c, 0x32, 0xff, 0x08, 0x1c, 0x05, 0x3d,
  0xf2, 0x41, 0xfd, 0x02, 0x2e, 0xe6, 0x04, 0x0d, 0xf8, 0xd7, 0x1e, 0x01,
  0x05, 0xf0, 0xe0, 0x14, 0x81, 0x06, 0xe5, 0x9d, 0xf4, 0x1f, 0xd5, 0xee,
  0xe5, 0xc2, 0xfa, 0x23, 0xdf, 0x8d, 0x09, 0x19, 0xdd, 0x2d, 0xd9, 0xa9,
  0x52, 0x0a, 0xe8, 0xe5, 0x1e, 0x26, 0xeb, 0xe1, 0xea, 0x00, 0xf3, 0x29,
  0xf5, 0x05, 0xfb, 0x02, 0xf9, 0x1c, 0xf2, 0x03, 0x24, 0xde, 0x00, 0x01,
  0xfc, 0x94, 0xf7, 0xf8, 0xef, 0xce, 0xd5, 0xf3, 0x7f, 0x9b, 0xc6, 0x2a,
  0x38, 0xcc, 0xd8, 0x9f, 0xd0, 0xe5, 0xce, 0x05, 0x16, 0xd6, 0xec, 0xf8,
  0x54, 0xd4, 0xd9, 0x40, 0x37, 0xd3, 0x11, 0xab, 0xbe, 0xf7, 0xe2, 0xe6,
  0x13, 0xeb, 0xd1, 0xef, 0x1e, 0xeb, 0xf4, 0x1d, 0xf4, 0xdd, 0x1b, 0xa6,
  0xfe, 0x14, 0x0f, 0xe7, 0x31, 0xf7, 0xe6, 0x2b, 0xc6, 0xfa, 0x11, 0x1a,
  0x30, 0x1c, 0x30, 0x11, 0xfa, 0x20, 0x0e, 0xea, 0x4d, 0xfa, 0xc6, 0x25,
  0x07, 0xc2, 0x09, 0x3f, 0x38, 0x0a, 0x1b, 0x07, 0x0e, 0x06, 0x08, 0xea,
  0x23, 0xef, 0xd9, 0x23, 0xf7, 0xf6, 0x05, 0x17, 0x2b, 0x07, 0x1b, 0x0c,
  0x12, 0xf8, 0xec, 0xda, 0x13, 0x10, 0xdc, 0xfe, 0xfb, 0xb2, 0xf7, 0x14,
  0x1d, 0x00, 0x05, 0x18, 0xf3, 0x10, 0xde, 0xe3, 0x06, 0x00, 0xc7, 0xb9,
  0xfa, 0xc0, 0xe9, 0xe4, 0x16, 0xe8, 0x44, 0xfb, 0x04, 0xe8, 0x06, 0x0e,
  0xef, 0x10, 0xee, 0xcc, 0x07, 0xe0, 0x0e, 0xbf, 0x0f, 0xf8, 0x0e, 0x07,
  0xac, 0x08, 0xe1, 0xcc, 0x15, 0xc0, 0x2d, 0xaf, 0x17, 0x15, 0xe6, 0x9d,
  0xc6, 0xf2, 0xaa, 0x94, 0xc7, 0xa9, 0xe4, 0xe1, 0xf9, 0xc9, 0xd3, 0x81,
  0xc0, 0xf7, 0xdb, 0xd9, 0x87, 0xd4, 0xc0, 0xc4, 0xdc, 0xc0, 0xe1, 0xf1,
  0xca, 0xcd, 0xe0, 0x8d, 0xc0, 0xe6, 0xdc, 0xe0, 0xe3, 0xb7, 0xcd, 0xe4,
  0xe1, 0x05, 0x08, 0xf8, 0xe8, 0x16, 0xed, 0x03, 0xe5, 0xf7, 0xfd, 0x1b,
  0xcc, 0x0b, 0x1b, 0x00, 0x0e, 0xed, 0x1c, 0x1d, 0xef, 0x38, 0xde, 0x03,
  0x0d, 0xf0, 0x14, 0x36, 0x34, 0x14, 0x04, 0x09, 0xba, 0xf0, 0x10, 0x0a,
  0xe0, 0xe5, 0x13, 0xc7, 0x19, 0x1b, 0xd9, 0x08, 0x9e, 0xfa, 0xfb, 0xc7,
  0xff, 0x07, 0x02, 0x0f, 0x2d, 0x0b, 0x2c, 0xf5, 0x29, 0x12, 0x05, 0xe9,
  0x16, 0x14, 0x02, 0xf5, 0x1b, 0x16, 0x37, 0xf6, 0x2c, 0x05, 0x0e, 0xf5,
  0xc8, 0xf6, 0x1d, 0x12, 0xe7, 0x0e, 0x25, 0x0a, 0xda, 0xeb, 0x0a, 0xec,
  0x36, 0xfe, 0x18, 0xeb, 0xae, 0xf9, 0xf2, 0x1b, 0x00, 0xfa, 0x11, 0xed,
  0x13, 0x0e, 0x05, 0xfe, 0xd9, 0x04, 0x09, 0x08, 0x06, 0xf8, 0xff, 0xf5,
  0x05, 0x0d, 0x07, 0x09, 0x14, 0xf4, 0x0b, 0xff, 0xb6, 0xfa, 0x0d, 0xdd,
  0x09, 0xe2, 0x0d, 0xbf, 0x04, 0xfd, 0xce, 0xf5, 0x09, 0xeb, 0xf1, 0xfc,
  0xe7, 0xef, 0xdb, 0xfc, 0x03, 0xda, 0xfb, 0x09, 0xfe, 0x01, 0x04, 0x07,
  0x07, 0xfe, 0x0f, 0x0b, 0xbd, 0x00, 0x12, 0x06, 0x11, 0x0a, 0x05, 0xa4,
  0xfe, 0x07, 0xc4, 0xf6, 0xe8, 0xfe, 0x18, 0x0b, 0xa4, 0xe4, 0x19, 0xfb,
  0x0e, 0xf5, 0x04, 0xa8, 0xf2, 0x0c, 0xbf, 0xe8, 0x0e, 0xff, 0xcb, 0xe3,
  0x17, 0xd9, 0xd2, 0x07, 0xf2, 0xdc, 0xde, 0xf7, 0xf3, 0x0a, 0xea, 0x10,
  0x06, 0xfb, 0x08, 0x0e, 0x0d, 0x09, 0xff, 0x06, 0x16, 0xf4, 0x02, 0xf1,
  0x1c, 0x00, 0xd7, 0x08, 0xb5, 0xf0, 0xd4, 0xfe, 0xde, 0xaf, 0x13, 0xda,
  0xfd, 0xfb, 0xef, 0xd6, 0x09, 0xd6, 0x81, 0xc0, 0x05, 0x0b, 0xe0, 0x08,
  0x1d, 0x01, 0xb6, 0x19, 0xf4, 0xb2, 0xe9, 0xfa, 0xfb, 0x02, 0xf8, 0x07,
  0x28, 0x0e, 0xfe, 0xff, 0x05, 0x05, 0x00, 0x06, 0xfe, 0xff, 0x03, 0xda,
  0x09, 0x1d, 0xec, 0x0d, 0xfa, 0xf1, 0x04, 0xfe, 0xaa, 0xbb, 0x12, 0xc7,
  0x0c, 0x10, 0x0a, 0xa2, 0xe4, 0x07, 0x81, 0xad, 0xeb, 0xcd, 0xff, 0x08,
  0xc3, 0x18, 0xed, 0xfe, 0xf1, 0xe7, 0xf9, 0x15, 0xff, 0xed, 0x0d, 0x01,
  0x12, 0xfc, 0x0c, 0x02, 0xd7, 0xeb, 0x10, 0x09, 0x1d, 0x16, 0x08, 0xb7,
  0xf2, 0x16, 0xa0, 0xeb, 0xac, 0xe7, 0xf0, 0x06, 0xcf, 0xdc, 0xeb, 0xf4,
  0xf2, 0xfb, 0xe1, 0xbd, 0xe1, 0x20, 0xbe, 0xd6, 0xfb, 0xeb, 0x0f, 0xfd,
  0xcb, 0xe3, 0xf9, 0xef, 0x0e, 0xff, 0x0c, 0x17, 0xf5, 0xd0, 0x05, 0xf4,
  0x18, 0xfe, 0x10, 0xf9, 0x0b, 0x01, 0xf7, 0x01, 0x1e, 0xfd, 0x14, 0xe7,
  0x18, 0x12, 0xe3, 0x0c, 0xc6, 0xe6, 0xae, 0xbe, 0xf1, 0x92, 0x04, 0xb1,
  0xcf, 0x05, 0xd3, 0xbc, 0xc2, 0xcd, 0x85, 0xaa, 0xf7, 0xf5, 0xf5, 0xf0,
  0xfa, 0xf6, 0x0b, 0xe6, 0xd9, 0xf5, 0xd1, 0xd5, 0xf1, 0xe6, 0xfe, 0x02,
  0x01, 0xdf, 0x02, 0x0d, 0x15, 0xff, 0xe1, 0x13, 0xfe, 0x03, 0xf3, 0xef,
  0xeb, 0xda, 0xe2, 0xfd, 0x10, 0xde, 0x0d, 0xfe, 0x00, 0xfe, 0xff, 0xfe,
  0xff, 0x0f, 0x08, 0xff, 0x00, 0x04, 0x00, 0x02, 0x12, 0xfa, 0x0b, 0xf3,
  0x11, 0x03, 0xd9, 0xfa, 0xf2, 0x18, 0x05, 0x00, 0x14, 0x0b, 0x0f, 0x08,
  0xfa, 0xfa, 0xe4, 0xff, 0x38, 0xea, 0xdd, 0x0e, 0xff, 0xfc, 0xd7, 0xd4,
  0xf4, 0xd6, 0xd2, 0xfc, 0x0f, 0xd1, 0x0d, 0x0d, 0xfa, 0x1f, 0xe8, 0xe4,
  0xf1, 0xfc, 0x14, 0x0b, 0xff, 0x0a, 0x03, 0x18, 0x07, 0xff, 0x01, 0xfa,
  0x06, 0x09, 0xdc, 0xe5, 0xf1, 0x10, 0x03, 0x05, 0x0e, 0x1d, 0x14, 0x07,
  0xb0, 0xcb, 0xbd, 0xba, 0xe2, 0xb8, 0xf9, 0x81, 0xd5, 0x0a, 0xa8, 0xbc,
  0xba, 0x9e, 0x8c, 0x9a, 0x0c, 0xb5, 0x0d, 0xff, 0xd3, 0x00, 0xf9, 0xd8,
  0xe8, 0x17, 0xee, 0xc4, 0x09, 0xe5, 0xbf, 0x00, 0x07, 0xee, 0x02, 0xf9,
  0xe6, 0x03, 0xe9, 0xe9, 0xf0, 0x14, 0x0c, 0xe2, 0xf3, 0x1f, 0xf4, 0x0e,
  0x0c, 0xfc, 0xfd, 0xfd, 0xf5, 0xfe, 0x09, 0x10, 0x02, 0x07, 0x00, 0x03,
  0x08, 0x00, 0x00, 0xff, 0x1b, 0xfb, 0x0b, 0x07, 0xf8, 0x02, 0xff, 0x09,
  0xf9, 0x07, 0x08, 0xca, 0xf6, 0x0e, 0xd3, 0x07, 0xbd, 0xf3, 0xf8, 0x00,
  0xb5, 0xcb, 0x14, 0xf9, 0xf1, 0x22, 0x0a, 0x0e, 0xf6, 0x0c, 0xd4, 0xe4,
  0x0d, 0x00, 0x06, 0xfb, 0xd7, 0xf8, 0x02, 0xfb, 0x11, 0x0e, 0xfe, 0xcf,
  0xfd, 0x08, 0xdf, 0x0d, 0x1c, 0x0e, 0x19, 0x03, 0xe1, 0x13, 0x0d, 0xe0,
  0x00, 0xf6, 0x19, 0x81, 0xec, 0x0a, 0x96, 0x06, 0xd2, 0xb6, 0xd2, 0xf0,
  0xf8, 0xd5, 0xfa, 0xea, 0xfa, 0xff, 0xd5, 0x15, 0xd9, 0xe5, 0xf5, 0xd1,
  0x12, 0xe2, 0x07, 0x0d, 0xd3, 0x00, 0x03, 0xe7, 0x08, 0x04, 0xfd, 0xe5,
  0x0e, 0x02, 0xec, 0x0b, 0xbf, 0xe9, 0x08, 0xfe, 0x8e, 0xc4, 0x19, 0xb5,
  0x0f, 0xfd, 0x10, 0xb9, 0x21, 0x00, 0x88, 0xd5, 0xf8, 0xbb, 0xc0, 0xe2,
  0x1b, 0xdf, 0xf3, 0x21, 0xdb, 0xfb, 0xb0, 0xfd, 0xd2, 0x1e, 0x00, 0xf8,
  0xf8, 0xbf, 0x9d, 0xc6, 0xd1, 0xdf, 0x81, 0x1b, 0xe3, 0xa5, 0xb0, 0xfc,
  0xac, 0xec, 0x05, 0xf5, 0xf5, 0x0d, 0xf2, 0xde, 0xcd, 0xe9, 0xc7, 0xff,
  0xda, 0xc9, 0xfc, 0x26, 0xf7, 0x1b, 0x1a, 0xfa, 0xdd, 0x10, 0xf2, 0xf4,
  0x0c, 0x12, 0xdc, 0xf3, 0xe5, 0x00, 0x05, 0x02, 0x30, 0xf4, 0x0b, 0xff,
  0x24, 0x13, 0xd9, 0xad, 0x04, 0xd5, 0xb6, 0x0d, 0xb1, 0xae, 0xed, 0x03,
  0xf3, 0x11, 0x01, 0x1a, 0x0a, 0x19, 0x07, 0xed, 0x1c, 0xf8, 0xf2, 0x06,
  0x16, 0xc2, 0x0e, 0x08, 0x02, 0x0a, 0xff, 0x03, 0xf8, 0x05, 0x07, 0xfe,
  0xc2, 0x0e, 0xf7, 0x0b, 0x03, 0xf8, 0x0d, 0x05, 0xff, 0xf6, 0xfe, 0x00,
  0x15, 0xfd, 0xdd, 0xa6, 0xfc, 0xd3, 0xde, 0x0b, 0xd7, 0xd1, 0xf4, 0x0c,
  0x03, 0x0e, 0x0e, 0x0e, 0x0d, 0x09, 0x02, 0xd8, 0x13, 0xf5, 0xef, 0x0c,
  0x08, 0xc0, 0x0e, 0x39, 0x1c, 0x15, 0x28, 0x09, 0xf4, 0x06, 0x0d, 0x07,
  0x0e, 0x08, 0x0e, 0xed, 0x00, 0x0c, 0x05, 0xea, 0x10, 0xeb, 0xeb, 0xfc,
  0x08, 0x0a, 0x17, 0x26, 0xc5, 0x1a, 0x04, 0x21, 0x5b, 0xe7, 0xfc, 0xe8,
  0xfe, 0x10, 0xf4, 0xf6, 0xfb, 0xeb, 0x08, 0x66, 0xbc, 0x39, 0xec, 0x10,
  0x45, 0xda, 0xf8, 0xc8, 0xf5, 0x01, 0xe7, 0x0b, 0xf6, 0xfd, 0x1d, 0x36,
  0xf6, 0x25, 0x06, 0x18, 0x1a, 0x03, 0x01, 0xca, 0xfd, 0x01, 0xdb, 0x08,
  0x0a, 0xfe, 0x0d, 0x3b, 0xa8, 0x12, 0x09, 0x06, 0x3d, 0xff, 0x07, 0xf8,
  0xf4, 0xf1, 0xd2, 0x0b, 0xea, 0x01, 0x0b, 0x69, 0x81, 0x20, 0xfc, 0xf7,
  0x5a, 0x03, 0x03, 0xb5, 0xf1, 0xd7, 0xb7, 0xfa, 0xfd, 0xbd, 0x11, 0x5c,
  0x89, 0x21, 0xe2, 0xa8, 0x60, 0xca, 0xf7, 0x95, 0x01, 0xe7, 0xc9, 0x01,
  0xec, 0x0e, 0x18, 0x1b, 0xeb, 0x0b, 0xef, 0x19, 0x46, 0x08, 0xfe, 0xf0,
  0x02, 0x11, 0x2e, 0xf9, 0x04, 0xfe, 0x1a, 0x58, 0xd7, 0x0f, 0x1d, 0x11,
  0x31, 0x17, 0x28, 0xd1, 0xfe, 0xed, 0x09, 0x09, 0xd3, 0xb1, 0xf3, 0x0c,
  0x93, 0xed, 0xd9, 0x0d, 0xf0, 0xfb, 0xd2, 0xe2, 0xdd, 0xb6, 0xd9, 0xdf,
  0xfc, 0x07, 0xff, 0xe9, 0x13, 0xf8, 0x17, 0x07, 0xba, 0x1e, 0x12, 0x02,
  0xe5, 0xfb, 0xd4, 0x04, 0x07, 0x01, 0x10, 0x1a, 0x23, 0x13, 0x15, 0xfb,
  0xef, 0x10, 0x11, 0xe6, 0xe0, 0x15, 0xf2, 0x15, 0x99, 0x0a, 0xd7, 0xc6,
  0xd5, 0xaf, 0x0d, 0xe9, 0xd7, 0x2c, 0xe7, 0xf5, 0x81, 0x0a, 0x04, 0xb3,
  0x11, 0xc7, 0xf9, 0xf4, 0x01, 0xf0, 0x12, 0xf8, 0xd3, 0x01, 0xff, 0x9d,
  0xe5, 0xf7, 0xb3, 0x0f, 0x12, 0xfd, 0x1b, 0x20, 0xff, 0x21, 0x24, 0xe1,
  0xdc, 0x39, 0x16, 0xb0, 0xec, 0x15, 0xc6, 0xfe, 0xf0, 0xf8, 0xfa, 0x25,
  0xdf, 0xf4, 0x0c, 0xf4, 0xec, 0x15, 0x0a, 0xf5, 0xa9, 0x1c, 0xd2, 0xf5,
  0xe6, 0x12, 0xc5, 0xae, 0x16, 0x94, 0x2f, 0x06, 0xe3, 0x31, 0xe5, 0xb7,
  0xdd, 0xf7, 0x91, 0xca, 0x10, 0xff, 0x05, 0xe4, 0x37, 0xf4, 0x0d, 0xfb,
  0x9e, 0x44, 0x16, 0xf9, 0x18, 0xe7, 0xc8, 0x0e, 0xff, 0xff, 0x10, 0x1d,
  0x23, 0x12, 0x08, 0xf0, 0x0c, 0x2c, 0xfa, 0xfc, 0x1c, 0xf3, 0xee, 0x08,
  0xff, 0x0a, 0xfa, 0xeb, 0xe4, 0x01, 0xf6, 0x15, 0x39, 0xfc, 0xfd, 0x0a,
  0xf8, 0x00, 0x0d, 0x02, 0xf8, 0xf5, 0x06, 0x1e, 0xa5, 0x09, 0xf4, 0x09,
  0x2b, 0xe7, 0xf7, 0xed, 0xf9, 0x09, 0x08, 0xfb, 0x04, 0xff, 0x0c, 0x1f,
  0xf1, 0x12, 0x0f, 0x01, 0x0f, 0xff, 0xfb, 0xe5, 0x04, 0xfd, 0xf7, 0x03,
  0x0c, 0x0d, 0x06, 0x01, 0xaf, 0x0a, 0x02, 0xf3, 0x21, 0xf6, 0xff, 0x0a,
  0xff, 0x00, 0x0e, 0x01, 0xfd, 0xf9, 0x07, 0x36, 0x81, 0x31, 0xec, 0xc4,
  0x47, 0xdd, 0xfc, 0xdd, 0x0d, 0x00, 0x03, 0x08, 0xf4, 0xea, 0xfb, 0x1b,
  0xa0, 0x17, 0x0b, 0xf0, 0x38, 0xe0, 0xf7, 0xf6, 0x04, 0xf6, 0x0c, 0x0c,
  0xfc, 0xfa, 0x09, 0xfc, 0xa0, 0xf7, 0x07, 0xae, 0xfe, 0xfd, 0xea, 0xd6,
  0x06, 0xef, 0xd9, 0xf8, 0xe1, 0xb1, 0x09, 0x39, 0xb0, 0xfb, 0x09, 0xba,
  0x28, 0x0a, 0xf1, 0xf9, 0x06, 0xee, 0xfc, 0xec, 0xf3, 0xfc, 0xfc, 0x1f,
  0xe4, 0x05, 0x05, 0xf2, 0xea, 0x11, 0xea, 0xe8, 0x09, 0xf2, 0xf1, 0x01,
  0x02, 0xf6, 0xe4, 0x02, 0x33, 0xfb, 0xd6, 0xc8, 0xf8, 0xda, 0xbd, 0x46,
  0xf6, 0xdf, 0x04, 0xb2, 0xd5, 0xdc, 0xc8, 0xe7, 0x43, 0x19, 0xe6, 0xd9,
  0x08, 0x00, 0xdd, 0x4c, 0x4c, 0xb2, 0x13, 0xb7, 0x03, 0xdb, 0xef, 0xf7,
  0x0a, 0x05, 0xef, 0xc3, 0x22, 0xc3, 0xd7, 0x22, 0x28, 0xc4, 0x08, 0xe1,
  0xd0, 0xfa, 0x25, 0x1c, 0x53, 0x26, 0xf0, 0x2d, 0x06, 0x17, 0x23, 0x2f,
  0x0a, 0x07, 0x1d, 0x0a, 0xf5, 0x16, 0x21, 0xf3, 0x6a, 0xed, 0xeb, 0x1a,
  0x05, 0x13, 0x1d, 0x68, 0x23, 0xff, 0x3a, 0x13, 0x12, 0x07, 0x0c, 0xcb,
  0x1e, 0xdc, 0xfd, 0x0d, 0xca, 0x1a, 0x0e, 0x4d, 0x1f, 0x28, 0x53, 0x22,
  0xe2, 0xf8, 0xe7, 0x17, 0x19, 0xb7, 0x25, 0xa8, 0x37, 0x11, 0x91, 0xb5,
  0xd9, 0xdb, 0x8b, 0x81, 0xd6, 0xd2, 0x8c, 0x99, 0x0a, 0xa7, 0x30, 0xc8,
  0xf4, 0x27, 0xc4, 0x9c, 0xf6, 0x9d, 0xc2, 0xb6, 0xed, 0x9d, 0xab, 0xab,
  0x0a, 0xdb, 0x19, 0x8b, 0x07, 0x1a, 0x97, 0xf8, 0x03, 0xa4, 0xab, 0xdd,
  0xf2, 0x19, 0xfd, 0xec, 0x5b, 0x04, 0xf8, 0xee, 0x32, 0x0b, 0xec, 0x2d,
  0x0a, 0x07, 0xf1, 0xe0, 0xdb, 0x2e, 0xe6, 0x08, 0x49, 0x29, 0xc5, 0x09,
  0x36, 0xb3, 0xdc, 0x52, 0x43, 0xf5, 0x37, 0xea, 0xf5, 0x07, 0xf4, 0x25,
  0x2e, 0xfc, 0xef, 0xfb, 0x26, 0xba, 0xe0, 0x16, 0x11, 0xec, 0x22, 0xf2,
  0xf7, 0x0e, 0xf8, 0xd4, 0x22, 0xe3, 0xf5, 0x11, 0xe3, 0xf0, 0x15, 0x19,
  0xed, 0xfc, 0x2c, 0x13, 0xfa, 0x29, 0xf3, 0xdf, 0x27, 0xd6, 0xb9, 0x23,
  0x1d, 0xda, 0x06, 0x47, 0xf7, 0xfa, 0x16, 0xf6, 0x0b, 0xf0, 0xf8, 0xf6,
  0xf6, 0x00, 0xb4, 0x31, 0xfd, 0xcd, 0xed, 0x15, 0xea, 0x0e, 0x10, 0x14,
  0x09, 0x0e, 0x0e, 0xcf, 0x81, 0xf5, 0x17, 0xf9, 0xea, 0x1a, 0x0b, 0x23,
  0xc5, 0x1d, 0x45, 0x0c, 0x2e, 0x1f, 0x1d, 0xb8, 0x8a, 0x15, 0xe5, 0x00,
  0xcd, 0xf0, 0x28, 0x2c, 0xa1, 0x1c, 0x44, 0x1b, 0x23, 0xf0, 0xf2, 0xe7,
  0xe9, 0xff, 0xcc, 0xfb, 0xe5, 0xfc, 0xfa, 0x22, 0xee, 0x3e, 0x34, 0x20,
  0x14, 0xd5, 0xb6, 0xd6, 0x51, 0xcc, 0xed, 0xdc, 0x07, 0xf3, 0xb3, 0x15,
  0xfd, 0xb8, 0xd3, 0xa5, 0x11, 0xca, 0xca, 0xc0, 0x5d, 0xf2, 0xda, 0xb2,
  0x34, 0xf6, 0x98, 0xf8, 0x44, 0x94, 0xd0, 0xc3, 0x12, 0xd4, 0xed, 0xe3,
  0x22, 0xf6, 0xfc, 0xae, 0x39, 0xe3, 0xb9, 0xc1, 0x1b, 0xbf, 0x81, 0xe7,
  0xef, 0xf9, 0x0a, 0xdf, 0x52, 0xf9, 0xeb, 0x0c, 0xd3, 0xf9, 0xf5, 0x37,
  0x1d, 0xfb, 0x0d, 0x15, 0x07, 0x07, 0x07, 0xf3, 0x1f, 0x06, 0xf5, 0x03,
  0xc1, 0xfb, 0x1d, 0x31, 0x4e, 0x13, 0xff, 0x20, 0xf1, 0x01, 0x13, 0xf5,
  0xcb, 0xef, 0xf4, 0xf9, 0xcd, 0x08, 0x09, 0x19, 0x0e, 0x11, 0x14, 0x14,
  0x05, 0xf9, 0xfa, 0xe1, 0x08, 0x02, 0x11, 0xf6, 0xee, 0x18, 0xf0, 0x16,
  0xfa, 0x11, 0x2c, 0xfe, 0xfe, 0x09, 0x15, 0xd1, 0x03, 0x00, 0xfc, 0xff,
  0xb4, 0xef, 0x12, 0x21, 0xeb, 0xff, 0x40, 0x04, 0x17, 0xf0, 0x19, 0xe1,
  0x30, 0xed, 0xf8, 0xef, 0xec, 0x07, 0xf8, 0x2b, 0x12, 0x1a, 0x19, 0x0c,
  0xbe, 0xd2, 0xf0, 0xf4, 0x8d, 0xac, 0xea, 0xf0, 0x08, 0x16, 0xc2, 0xf3,
  0xdb, 0xae, 0xf9, 0x81, 0x17, 0xa5, 0x0a, 0x15, 0xfe, 0xf0, 0xd8, 0xf9,
  0xf2, 0xef, 0xec, 0xf1, 0xfc, 0xf7, 0xb8, 0xfe, 0x15, 0x00, 0x0c, 0xf6,
  0x08, 0x01, 0x28, 0xfb, 0xf5, 0x45, 0x09, 0x00, 0x08, 0x14, 0xdc, 0x0a,
  0xed, 0x1c, 0xeb, 0xf8, 0xe7, 0xd6, 0x12, 0x12, 0x00, 0x18, 0x21, 0xf1,
  0x9d, 0x0e, 0xf9, 0xd0, 0xfb, 0xda, 0xef, 0x02, 0xdd, 0x05, 0xdd, 0xfb,
  0xee, 0xf4, 0xd8, 0xef, 0xdf, 0xe6, 0xb6, 0x07, 0x0d, 0xf2, 0x11, 0x2a,
  0xe1, 0x0a, 0x30, 0xf0, 0x06, 0x3a, 0x02, 0x06, 0x0c, 0x09, 0xfa, 0x0c,
  0xfe, 0x14, 0xeb, 0xe3, 0xe4, 0x9c, 0x04, 0x0d, 0xc9, 0x08, 0x03, 0xda,
  0xef, 0x14, 0xdf, 0xec, 0xe6, 0x0d, 0xe1, 0x1b, 0x19, 0x0a, 0x0c, 0xfb,
  0xd8, 0xed, 0xfd, 0x10, 0xcc, 0xdd, 0xea, 0xf6, 0x03, 0xe8, 0x15, 0x15,
  0xea, 0x14, 0x27, 0xf2, 0x00, 0x10, 0x05, 0x0e, 0xf5, 0xf5, 0xf6, 0x13,
  0xdc, 0x09, 0xe6, 0xfd, 0x1b, 0xf1, 0x06, 0x0b, 0xff, 0x12, 0xeb, 0x24,
  0xc5, 0xd0, 0xfd, 0xb7, 0x11, 0xda, 0x32, 0x1a, 0xe8, 0x11, 0xf4, 0xed,
  0xd3, 0x16, 0x13, 0x08, 0xeb, 0xff, 0x0e, 0x06, 0xdc, 0x07, 0x01, 0x0e,
  0x95, 0x10, 0x18, 0xdb, 0xeb, 0x2d, 0x00, 0x15, 0x9f, 0x0f, 0x31, 0x08,
  0x19, 0x13, 0x12, 0xc0, 0xe9, 0xf3, 0x13, 0x02, 0xa2, 0x03, 0x19, 0x01,
  0x11, 0x06, 0xf9, 0x0b, 0xef, 0x21, 0xf5, 0xed, 0x02, 0xbf, 0x06, 0x13,
  0xe9, 0x20, 0xef, 0x0a, 0xe2, 0xea, 0xf6, 0xe0, 0x04, 0x08, 0x16, 0x23,
  0xf0, 0x16, 0xf3, 0xfc, 0x23, 0x15, 0x01, 0xa4, 0xfa, 0xef, 0x01, 0x12,
  0x1e, 0x9f, 0xbb, 0x97, 0x01, 0xc4, 0xe3, 0x21, 0xf0, 0xf3, 0x81, 0xff,
  0x13, 0xdb, 0xfa, 0xcc, 0xa6, 0x07, 0xae, 0xe8, 0xd9, 0xad, 0x2b, 0x19,
  0x14, 0x22, 0xd8, 0xff, 0xcd, 0xdf, 0x14, 0x95, 0xe6, 0xd5, 0xb9, 0xe4,
  0xfc, 0xda, 0x10, 0x25, 0xe5, 0x45, 0xaf, 0x03, 0xc7, 0xfd, 0xe8, 0xad,
  0xde, 0x08, 0xcb, 0xac, 0xf2, 0xac, 0x1a, 0xd3, 0xb6, 0xff, 0xeb, 0xf5,
  0xe3, 0xcf, 0xda, 0xbc, 0xae, 0x90, 0xb2, 0xdf, 0x0d, 0xb0, 0xd8, 0x81,
  0x09, 0xdb, 0x96, 0xad, 0xb3, 0x8b, 0x92, 0xce, 0xb9, 0xae, 0xd0, 0xe9,
  0xda, 0xe0, 0xc8, 0x90, 0xeb, 0xd2, 0xd1, 0xc5, 0xb4, 0x99, 0xcd, 0xce,
  0xdd, 0xfb, 0x0b, 0x0f, 0x27, 0x2b, 0xe7, 0x21, 0x04, 0xf9, 0x03, 0x0a,
  0x16, 0x14, 0x15, 0x02, 0xdb, 0x08, 0x0a, 0x15, 0xfc, 0x0b, 0xd3, 0x2e,
  0x50, 0xf1, 0x00, 0x0e, 0x54, 0x0a, 0x0c, 0x0b, 0xbf, 0x08, 0x13, 0x01,
  0xea, 0x04, 0xfe, 0xda, 0xfa, 0x0b, 0xfb, 0xed, 0xba, 0xec, 0x0b, 0xcd,
  0x07, 0x07, 0x13, 0x19, 0x4b, 0x0e, 0xc8, 0x03, 0x26, 0x8e, 0x0b, 0xe9,
  0x14, 0xfe, 0x10, 0x0b, 0xfb, 0x1c, 0xfe, 0xfa, 0x3a, 0xd9, 0xf5, 0xf8,
  0x24, 0xda, 0x11, 0x14, 0x07, 0xfc, 0x14, 0xf7, 0x16, 0xff, 0xfa, 0xd7,
  0x40, 0xf1, 0x03, 0x04, 0x89, 0x02, 0xfa, 0x25, 0x0f, 0x06, 0x01, 0x09,
  0x01, 0xa2, 0xcd, 0xed, 0xf7, 0xe8, 0x16, 0xff, 0xdb, 0x04, 0xc0, 0xf5,
  0xcb, 0xf7, 0xf5, 0xfe, 0xf7, 0x0e, 0x13, 0x10, 0x28, 0x0e, 0x0f, 0x1b,
  0xfc, 0x14, 0x16, 0x1d, 0xeb, 0x1b, 0x02, 0x0f, 0xbc, 0xed, 0xec, 0xfb,
  0xb5, 0xe7, 0xf6, 0xe9, 0xf8, 0x30, 0xee, 0x11, 0xe2, 0xfd, 0x23, 0xbf,
  0xee, 0xd9, 0xa5, 0xf5, 0xec, 0xc3, 0x06, 0x0c, 0xe5, 0xfe, 0xa2, 0xdc,
  0xc4, 0xee, 0xcc, 0xf8, 0x0c, 0x0e, 0x13, 0x11, 0x1b, 0x11, 0x28, 0x03,
  0x17, 0x21, 0x18, 0xe2, 0xf2, 0x0d, 0xff, 0x0c, 0x87, 0xe2, 0xf2, 0x09,
  0xe9, 0xc8, 0xfe, 0xd9, 0x2a, 0x29, 0xd6, 0xe2, 0xcd, 0xe7, 0xdf, 0x81,
  0xdc, 0x02, 0xa9, 0xe2, 0x2a, 0xb9, 0x33, 0x08, 0xcc, 0x1f, 0xcc, 0xf6,
  0xe7, 0xe9, 0xd7, 0xc1, 0x05, 0x09, 0x11, 0x1a, 0x2a, 0x19, 0x16, 0x14,
  0xf2, 0x24, 0x0f, 0x05, 0x05, 0xef, 0xf3, 0x12, 0xc5, 0xff, 0xe9, 0x0d,
  0x32, 0xe1, 0x05, 0x18, 0x19, 0x1d, 0xe9, 0xf7, 0xe9, 0xf0, 0xf0, 0xd7,
  0x01, 0xb4, 0xaf, 0xf1, 0x0b, 0x01, 0xfc, 0xe7, 0xd3, 0x07, 0xa4, 0xee,
  0xcf, 0xe1, 0xf9, 0xfa, 0x06, 0x16, 0x13, 0x16, 0x1f, 0x08, 0x08, 0x15,
  0x16, 0x0e, 0x12, 0x27, 0x06, 0x1c, 0xf7, 0x07, 0x81, 0xfc, 0xd6, 0xbf,
  0xef, 0xb4, 0x0b, 0xf2, 0xdd, 0x2f, 0xe4, 0x1a, 0xd9, 0xe1, 0x0f, 0xab,
  0x02, 0xac, 0xb1, 0x15, 0xb9, 0x06, 0xf9, 0xfb, 0xf2, 0x07, 0xa9, 0xd6,
  0xcb, 0xce, 0xdb, 0xfb, 0x0e, 0x00, 0x16, 0x11, 0xf4, 0x14, 0x2b, 0xfd,
  0x06, 0x24, 0x15, 0xd5, 0xfb, 0x1e, 0xfa, 0x0b, 0x90, 0xf8, 0xde, 0x04,
  0xda, 0xeb, 0x15, 0xbd, 0x0e, 0x1d, 0xe5, 0xdd, 0xc5, 0xf3, 0xfa, 0x9d,
  0xef, 0xee, 0xb1, 0xe3, 0x2c, 0xd9, 0x25, 0x04, 0xf2, 0x42, 0xca, 0xe0,
  0xf6, 0xe1, 0xd3, 0xe9, 0x0c, 0x00, 0x1c, 0x14, 0x31, 0x0e, 0x2c, 0x01,
  0xdf, 0x3f, 0x10, 0x03, 0x0c, 0xf8, 0xf1, 0x0f, 0xd8, 0xf5, 0xed, 0x0a,
  0x23, 0xf0, 0x1c, 0x03, 0x02, 0x21, 0xf1, 0xf4, 0xf4, 0xfe, 0xea, 0xf8,
  0xee, 0xcb, 0xe1, 0xd6, 0x02, 0xc1, 0xe5, 0x07, 0xce, 0xeb, 0xae, 0xa0,
  0xdb, 0xdb, 0x81, 0xc8, 0x09, 0xe8, 0x28, 0x0f, 0x07, 0xff, 0x3e, 0xfb,
  0xeb, 0x27, 0x1c, 0xf5, 0x01, 0xe8, 0xdb, 0x00, 0x06, 0xf3, 0x10, 0x01,
  0x06, 0xfc, 0xf5, 0xfc, 0xf6, 0x11, 0x06, 0xfb, 0x00, 0x12, 0xfd, 0x10,
  0xa2, 0xb5, 0x8e, 0x86, 0xf2, 0x9f, 0xeb, 0xc5, 0xbc, 0xfb, 0x8a, 0xb5,
  0x97, 0xe1, 0xa7, 0x93, 0x12, 0xca, 0x18, 0x15, 0xd6, 0x0d, 0x02, 0xf0,
  0xda, 0xe8, 0x0a, 0xe0, 0xf0, 0xfc, 0xe0, 0x07, 0x0c, 0xfa, 0x09, 0x21,
  0xf4, 0x0b, 0xfd, 0xef, 0x05, 0x29, 0xfa, 0xf2, 0x09, 0x0e, 0x03, 0x03,
  0xc8, 0xd3, 0xc4, 0xea, 0xf4, 0xd9, 0xfa, 0xf2, 0xa5, 0x02, 0xb6, 0xf2,
  0xac, 0xe5, 0xdd, 0xc3, 0xf8, 0xf1, 0x0b, 0x25, 0x17, 0x22, 0x10, 0xef,
  0xec, 0xf6, 0xfd, 0x08, 0xf0, 0xee, 0x02, 0xff, 0x00, 0xee, 0x05, 0x14,
  0x01, 0x0d, 0xff, 0xf9, 0xfb, 0xf3, 0x06, 0x02, 0xf7, 0x04, 0x02, 0x07,
  0xda, 0x0e, 0xf9, 0xf2, 0xe7, 0x23, 0xeb, 0x04, 0xfa, 0x03, 0xd9, 0x23,
  0xad, 0x08, 0x2e, 0xa6, 0xc7, 0xe1, 0xb1, 0xcd, 0xec, 0xb9, 0x11, 0x03,
  0x3b, 0x0d, 0xa3, 0xd6, 0xe0, 0x9b, 0xd3, 0x91, 0x29, 0xad, 0x0e, 0xff,
  0xfb, 0x17, 0x16, 0xdf, 0x43, 0x1b, 0xc6, 0x03, 0x2e, 0xe7, 0xb3, 0xdc,
  0xfd, 0x17, 0x0e, 0xde, 0xee, 0xf0, 0x11, 0x04, 0xe5, 0x06, 0x10, 0xf2,
  0x30, 0xf3, 0xe9, 0x1e, 0xe7, 0x15, 0x0b, 0xd1, 0x33, 0xf5, 0x01, 0xfc,
  0xcf, 0x26, 0x05, 0x2f, 0x0c, 0xf7, 0xee, 0xfd, 0xff, 0x08, 0x17, 0x1f,
  0x14, 0x3e, 0x0e, 0x05, 0x0f, 0x3a, 0xf7, 0xed, 0xe9, 0xfa, 0xfa, 0x08,
  0xd4, 0xb4, 0x91, 0xb6, 0xf1, 0xeb, 0xeb, 0x92, 0xd7, 0xfb, 0x81, 0xe6,
  0xc6, 0xac, 0xf8, 0xb0, 0x06, 0xd8, 0xe3, 0xdc, 0x1e, 0xce, 0x1a, 0x94,
  0x18, 0x21, 0xdf, 0xe9, 0x46, 0xbd, 0xd1, 0xe6, 0xff, 0xe0, 0x0d, 0xf2,
  0x04, 0xfc, 0x11, 0xb1, 0x2a, 0x0c, 0x0a, 0xf5, 0x31, 0xca, 0xc4, 0x29,
  0xf9, 0x16, 0x28, 0x53, 0x0f, 0x22, 0xeb, 0x10, 0x3b, 0x0f, 0xfd, 0xf2,
  0xf7, 0x09, 0xe6, 0xf0, 0x0a, 0x13, 0x1d, 0x61, 0x0e, 0x46, 0x18, 0x3a,
  0x17, 0x16, 0x16, 0xee, 0xeb, 0xf8, 0xe9, 0x18, 0x0e, 0xee, 0x19, 0x3f,
  0xe4, 0x33, 0xf3, 0x1c, 0x36, 0xea, 0xfe, 0xd7, 0xe2, 0x0e, 0xe0, 0xff,
  0x0f, 0x0b, 0x0b, 0x7f, 0x17, 0x09, 0xfe, 0x1a, 0x56, 0x0f, 0x11, 0x95,
  0xf1, 0xf6, 0xc0, 0x07, 0x10, 0x01, 0xf1, 0x71, 0x11, 0x19, 0xf8, 0x0c,
  0x25, 0xf4, 0x06, 0x87, 0xc7, 0x10, 0xda, 0xfd, 0x0b, 0xf8, 0x11, 0x63,
  0x1c, 0x0e, 0x06, 0x08, 0x4e, 0xf4, 0x05, 0x9c, 0xf5, 0xed, 0xdc, 0x05,
  0xe9, 0xfd, 0x28, 0x43, 0xd3, 0x29, 0xfb, 0x0e, 0x3f, 0x1a, 0x0d, 0xa1,
  0xfe, 0x04, 0x03, 0xee, 0xec, 0x2b, 0xf2, 0x7e, 0x4c, 0x49, 0x0c, 0x30,
  0x1e, 0x3f, 0x22, 0xbb, 0xf0, 0xf9, 0xe7, 0xfe, 0xeb, 0x10, 0x01, 0x3c,
  0x20, 0x36, 0x06, 0x32, 0x0b, 0xed, 0xff, 0xc4, 0x00, 0xe8, 0xec, 0x0a,
  0xef, 0x27, 0xd4, 0xcd, 0xe3, 0x0d, 0x81, 0x0f, 0x23, 0x8e, 0xeb, 0x4b,
  0x4d, 0x06, 0x3c, 0xf3, 0xdf, 0x0c, 0xe2, 0xf0, 0xe5, 0x10, 0xcf, 0xf4,
  0x56, 0xa9, 0xf0, 0x32, 0x41, 0x0a, 0x3f, 0xf4, 0xec, 0x02, 0xfa, 0xeb,
  0x07, 0xfb, 0xdd, 0x0e, 0x18, 0xe3, 0xfa, 0x15, 0x2c, 0xec, 0xfe, 0xf0,
  0x01, 0x33, 0x0c, 0xe5, 0xe0, 0x15, 0xbe, 0x16, 0xf1, 0xae, 0x10, 0x0f,
  0x3b, 0x04, 0x42, 0x0f, 0xec, 0x1b, 0xfc, 0x04, 0x2b, 0xeb, 0xb3, 0x23,
  0x61, 0xc2, 0xf5, 0x3f, 0x4b, 0xff, 0x6a, 0xfa, 0xf2, 0x13, 0x06, 0x10,
  0xe4, 0x18, 0xe2, 0x10, 0x29, 0xdc, 0x11, 0x1e, 0x10, 0xfe, 0x24, 0x1e,
  0x0c, 0x26, 0x00, 0xf1, 0xdb, 0x0e, 0xd4, 0x15, 0x38, 0xf1, 0x0f, 0x37,
  0x27, 0x06, 0x2c, 0x1f, 0xe4, 0x13, 0xe5, 0xfb, 0xe0, 0xfe, 0xcf, 0xea,
  0x4a, 0xa4, 0xf5, 0x2f, 0x14, 0x07, 0x49, 0xed, 0xee, 0x1e, 0x0d, 0x05,
  0xf2, 0xfe, 0xe2, 0x09, 0x10, 0xcd, 0x05, 0x1a, 0x0b, 0xf9, 0x42, 0x13,
  0x06, 0xfe, 0xff, 0xff, 0x04, 0x00, 0x00, 0x00, 0x80, 0x00, 0x00, 0x00,
  0xf5, 0x00, 0x00, 0x00, 0xd3, 0x02, 0x00, 0x00, 0xe1, 0x00, 0x00, 0x00,
  0x7e, 0xff, 0xff, 0xff, 0xed, 0xfe, 0xff, 0xff, 0x5a, 0x00, 0x00, 0x00,
  0xfa, 0xff, 0xff, 0xff, 0x8d, 0x01, 0x00, 0x00, 0xdd, 0xff, 0xff, 0xff,
  0xf4, 0x03, 0x00, 0x00, 0x5d, 0x02, 0x00, 0x00, 0xf0, 0xff, 0xff, 0xff,
  0x7e, 0xff, 0xff, 0xff, 0x0a, 0x01, 0x00, 0x00, 0x0a, 0x00, 0x00, 0x00,
  0x4f, 0x00, 0x00, 0x00, 0x9a, 0xfe, 0xff, 0xff, 0x96, 0xff, 0xff, 0xff,
  0x6a, 0xff, 0xff, 0xff, 0xab, 0x00, 0x00, 0x00, 0x77, 0x00, 0x00, 0x00,
  0x92, 0x01, 0x00, 0x00, 0xbf, 0x00, 0x00, 0x00, 0x0b, 0x00, 0x00, 0x00,
  0x5f, 0x03, 0x00, 0x00, 0xf1, 0xfe, 0xff, 0xff, 0x57, 0x01, 0x00, 0x00,
  0x7f, 0x02, 0x00, 0x00, 0x87, 0xff, 0xff, 0xff, 0x47, 0x03, 0x00, 0x00,
  0x17, 0xfd, 0xff, 0xff, 0x68, 0xff, 0xff, 0xff, 0x92, 0xfe, 0xff, 0xff,
  0x04, 0x00, 0x00, 0x00, 0xa0, 0x00, 0x00, 0x00, 0x17, 0xe7, 0xf0, 0x21,
  0xf8, 0x0b, 0xbb, 0x22, 0xc0, 0x10, 0xc3, 0xe2, 0x1b, 0x0b, 0x02, 0x09,
  0xa4, 0x05, 0x1a, 0x0c, 0x87, 0xc0, 0xaa, 0x17, 0x23, 0xe8, 0x25, 0x29,
  0x2e, 0x01, 0x09, 0xf7, 0x29, 0xc7, 0x03, 0x26, 0xe9, 0x0b, 0x2c, 0x2b,
  0xa7, 0xc7, 0x81, 0x0e, 0x30, 0x0d, 0xf9, 0x0c, 0x09, 0xfd, 0x1f, 0xbf,
  0xe4, 0x05, 0xf6, 0x19, 0xe4, 0x9a, 0x27, 0x35, 0x16, 0xd6, 0x04, 0xad,
  0x17, 0x31, 0xcb, 0xe3, 0x2d, 0xe3, 0x19, 0x22, 0x25, 0xe0, 0x21, 0x26,
  0xcf, 0xe4, 0x03, 0xec, 0x04, 0xa7, 0xf6, 0xa2, 0x2f, 0xf9, 0x17, 0xe8,
  0x38, 0x20, 0xfe, 0x18, 0xca, 0x2d, 0xb6, 0x10, 0xb0, 0x00, 0x18, 0xae,
  0x46, 0x1c, 0x48, 0xa9, 0x10, 0x19, 0x1e, 0x33, 0xb2, 0xa1, 0x2a, 0x8f,
  0xfa, 0x12, 0xf1, 0x16, 0x36, 0x18, 0x24, 0x07, 0xe8, 0x2f, 0xbe, 0xcf,
  0x28, 0x00, 0x10, 0x1b, 0x2a, 0xb9, 0x17, 0x23, 0xb2, 0x20, 0xc6, 0x14,
  0x1b, 0x1d, 0x3a, 0x0c, 0x37, 0x06, 0xb9, 0x24, 0x30, 0x1c, 0x9d, 0x2b,
  0x03, 0x1b, 0x22, 0xab, 0xb1, 0xfa, 0xc5, 0xc8, 0xb3, 0xa7, 0x12, 0x26,
  0x3e, 0xff, 0xff, 0xff, 0x04, 0x00, 0x00, 0x00, 0x14, 0x00, 0x00, 0x00,
  0x2e, 0x01, 0x00, 0x00, 0x98, 0xff, 0xff, 0xff, 0x61, 0x02, 0x00, 0x00,
  0x9d, 0xfe, 0xff, 0xff, 0xf7, 0xfd, 0xff, 0xff, 0x5e, 0xff, 0xff, 0xff,
  0x04, 0x00, 0x00, 0x00, 0x08, 0x00, 0x00, 0x00, 0x01, 0x00, 0x00, 0x00,
  0x02, 0x00, 0x00, 0x00, 0xdc, 0xf0, 0xff, 0xff, 0xe0, 0xf0, 0xff, 0xff,
  0x0f, 0x00, 0x00, 0x00, 0x4d, 0x4c, 0x49, 0x52, 0x20, 0x43, 0x6f, 0x6e,
  0x76, 0x65, 0x72, 0x74, 0x65, 0x64, 0x2e, 0x00, 0x01, 0x00, 0x00, 0x00,
  0x14, 0x00, 0x00, 0x00, 0x00, 0x00, 0x0e, 0x00, 0x18, 0x00, 0x14, 0x00,
  0x10, 0x00, 0x0c, 0x00, 0x08, 0x00, 0x04, 0x00, 0x0e, 0x00, 0x00, 0x00,
  0x14, 0x00, 0x00, 0x00, 0x1c, 0x00, 0x00, 0x00, 0xb0, 0x01, 0x00, 0x00,
  0xb4, 0x01, 0x00, 0x00, 0xb8, 0x01, 0x00, 0x00, 0x04, 0x00, 0x00, 0x00,
  0x6d, 0x61, 0x69, 0x6e, 0x00, 0x00, 0x00, 0x00, 0x06, 0x00, 0x00, 0x00,
  0x4c, 0x01, 0x00, 0x00, 0xfc, 0x00, 0x00, 0x00, 0xbc, 0x00, 0x00, 0x00,
  0x88, 0x00, 0x00, 0x00, 0x40, 0x00, 0x00, 0x00, 0x04, 0x00, 0x00, 0x00,
  0x92, 0xff, 0xff, 0xff, 0x1c, 0x00, 0x00, 0x00, 0x00, 0x00, 0x00, 0x09,
  0x1c, 0x00, 0x00, 0x00, 0x20, 0x00, 0x00, 0x00, 0x03, 0x00, 0x00, 0x00,
  0x00, 0x00, 0x06, 0x00, 0x08, 0x00, 0x04, 0x00, 0x06, 0x00, 0x00, 0x00,
  0x00, 0x00, 0x80, 0x3f, 0x01, 0x00, 0x00, 0x00, 0x0f, 0x00, 0x00, 0x00,
  0x01, 0x00, 0x00, 0x00, 0x0e, 0x00, 0x00, 0x00, 0xca, 0xff, 0xff, 0xff,
  0x14, 0x00, 0x00, 0x00, 0x00, 0x00, 0x00, 0x08, 0x10, 0x00, 0x00, 0x00,
  0x14, 0x00, 0x00, 0x00, 0x02, 0x00, 0x00, 0x00, 0xa0, 0xf1, 0xff, 0xff,
  0x01, 0x00, 0x00, 0x00, 0x0e, 0x00, 0x00, 0x00, 0x03, 0x00, 0x00, 0x00,
  0x0d, 0x00, 0x00, 0x00, 0x03, 0x00, 0x00, 0x00, 0x02, 0x00, 0x00, 0x00,
  0x00, 0x00, 0x0e, 0x00, 0x18, 0x00, 0x14, 0x00, 0x10, 0x00, 0x0c, 0x00,
  0x0b, 0x00, 0x04, 0x00, 0x0e, 0x00, 0x00, 0x00, 0x14, 0x00, 0x00, 0x00,
  0x00, 0x00, 0x00, 0x1b, 0x10, 0x00, 0x00, 0x00, 0x14, 0x00, 0x00, 0x00,
  0x01, 0x00, 0x00, 0x00, 0xe4, 0xf1, 0xff, 0xff, 0x01, 0x00, 0x00, 0x00,
  0x0d, 0x00, 0x00, 0x00, 0x02, 0x00, 0x00, 0x00, 0x0c, 0x00, 0x00, 0x00,
  0x01, 0x00, 0x00, 0x00, 0x86, 0xff, 0xff, 0xff, 0x10, 0x00, 0x00, 0x00,
  0x00, 0x00, 0x00, 0x01, 0x18, 0x00, 0x00, 0x00, 0x1c, 0x00, 0x00, 0x00,
  0x78, 0xff, 0xff, 0xff, 0x00, 0x00, 0x00, 0x01, 0x02, 0x00, 0x00, 0x00,
  0x02, 0x00, 0x00, 0x00, 0x01, 0x00, 0x00, 0x00, 0x0c, 0x00, 0x00, 0x00,
  0x03, 0x00, 0x00, 0x00, 0x0b, 0x00, 0x00, 0x00, 0x05, 0x00, 0x00, 0x00,
  0x04, 0x00, 0x00, 0x00, 0xc2, 0xff, 0xff, 0xff, 0x10, 0x00, 0x00, 0x00,
  0x00, 0x00, 0x00, 0x01, 0x18, 0x00, 0x00, 0x00, 0x1c, 0x00, 0x00, 0x00,
  0xb4, 0xff, 0xff, 0xff, 0x00, 0x00, 0x00, 0x01, 0x02, 0x00, 0x00, 0x00,
  0x02, 0x00, 0x00, 0x00, 0x01, 0x00, 0x00, 0x00, 0x0b, 0x00, 0x00, 0x00,
  0x03, 0x00, 0x00, 0x00, 0x0a, 0x00, 0x00, 0x00, 0x07, 0x00, 0x00, 0x00,
  0x06, 0x00, 0x00, 0x00, 0x00, 0x00, 0x0e, 0x00, 0x14, 0x00, 0x00, 0x00,
  0x10, 0x00, 0x0c, 0x00, 0x0b, 0x00, 0x04, 0x00, 0x0e, 0x00, 0x00, 0x00,
  0x1c, 0x00, 0x00, 0x00, 0x00, 0x00, 0x00, 0x01, 0x24, 0x00, 0x00, 0x00,
  0x28, 0x00, 0x00, 0x00, 0x0c, 0x00, 0x10, 0x00, 0x00, 0x00, 0x0c, 0x00,
  0x08, 0x00, 0x07, 0x00, 0x0c, 0x00, 0x00, 0x00, 0x00, 0x00, 0x00, 0x01,
  0x02, 0x00, 0x00, 0x00, 0x02, 0x00, 0x00, 0x00, 0x01, 0x00, 0x00, 0x00,
  0x0a, 0x00, 0x00, 0x00, 0x03, 0x00, 0x00, 0x00, 0x00, 0x00, 0x00, 0x00,
  0x09, 0x00, 0x00, 0x00, 0x08, 0x00, 0x00, 0x00, 0x01, 0x00, 0x00, 0x00,
  0x0f, 0x00, 0x00, 0x00, 0x01, 0x00, 0x00, 0x00, 0x00, 0x00, 0x00, 0x00,
  0x10, 0x00, 0x00, 0x00, 0x84, 0x0d, 0x00, 0x00, 0x00, 0x0d, 0x00, 0x00,
  0x78, 0x0c, 0x00, 0x00, 0x14, 0x0c, 0x00, 0x00, 0x28, 0x0a, 0x00, 0x00,
  0x44, 0x08, 0x00, 0x00, 0x18, 0x07, 0x00, 0x00, 0xf4, 0x05, 0x00, 0x00,
  0x30, 0x05, 0x00, 0x00, 0x1c, 0x04, 0x00, 0x00, 0x48, 0x03, 0x00, 0x00,
  0x6c, 0x02, 0x00, 0x00, 0x90, 0x01, 0x00, 0x00, 0x0c, 0x01, 0x00, 0x00,
  0x80, 0x00, 0x00, 0x00, 0x04, 0x00, 0x00, 0x00, 0xd2, 0xf2, 0xff, 0xff,
  0x00, 0x00, 0x00, 0x01, 0x18, 0x00, 0x00, 0x00, 0x20, 0x00, 0x00, 0x00,
  0x3c, 0x00, 0x00, 0x00, 0x10, 0x00, 0x00, 0x00, 0x00, 0x00, 0x00, 0x09,
  0x50, 0x00, 0x00, 0x00, 0x02, 0x00, 0x00, 0x00, 0xff, 0xff, 0xff, 0xff,
  0x05, 0x00, 0x00, 0x00, 0xb4, 0xf2, 0xff, 0xff, 0x08, 0x00, 0x00, 0x00,
  0x10, 0x00, 0x00, 0x00, 0x01, 0x00, 0x00, 0x00, 0x80, 0xff, 0xff, 0xff,
  0xff, 0xff, 0xff, 0xff, 0x01, 0x00, 0x00, 0x00, 0x00, 0x00, 0x80, 0x3b,
  0x19, 0x00, 0x00, 0x00, 0x53, 0x74, 0x61, 0x74, 0x65, 0x66, 0x75, 0x6c,
  0x50, 0x61, 0x72, 0x74, 0x69, 0x74, 0x69, 0x6f, 0x6e, 0x65, 0x64, 0x43,
  0x61, 0x6c, 0x6c, 0x3a, 0x30, 0x00, 0x00, 0x00, 0x02, 0x00, 0x00, 0x00,
  0x01, 0x00, 0x00, 0x00, 0x05, 0x00, 0x00, 0x00, 0x4a, 0xf3, 0xff, 0xff,
  0x00, 0x00, 0x00, 0x01, 0x18, 0x00, 0x00, 0x00, 0x20, 0x00, 0x00, 0x00,
  0x40, 0x00, 0x00, 0x00, 0x0f, 0x00, 0x00, 0x00, 0x00, 0x00, 0x00, 0x09,
  0x60, 0x00, 0x00, 0x00, 0x02, 0x00, 0x00, 0x00, 0xff, 0xff, 0xff, 0xff,
  0x05, 0x00, 0x00, 0x00, 0x2c, 0xf3, 0xff, 0xff, 0x08, 0x00, 0x00, 0x00,
  0x14, 0x00, 0x00, 0x00, 0x01, 0x00, 0x00, 0x00, 0x20, 0x00, 0x00, 0x00,
  0x00, 0x00, 0x00, 0x00, 0x00, 0x00, 0x00, 0x00, 0x01, 0x00, 0x00, 0x00,
  0x79, 0x8b, 0x20, 0x3e, 0x26, 0x00, 0x00, 0x00, 0x6d, 0x6f, 0x64, 0x65,
  0x6c, 0x2f, 0x64, 0x65, 0x6e, 0x73, 0x65, 0x2f, 0x4d, 0x61, 0x74, 0x4d,
  0x75, 0x6c, 0x3b, 0x6d, 0x6f, 0x64, 0x65, 0x6c, 0x2f, 0x64, 0x65, 0x6e,
  0x73, 0x65, 0x2f, 0x42, 0x69, 0x61, 0x73, 0x41, 0x64, 0x64, 0x00, 0x00,
  0x02, 0x00, 0x00, 0x00, 0x01, 0x00, 0x00, 0x00, 0x05, 0x00, 0x00, 0x00,
  0xd2, 0xf3, 0xff, 0xff, 0x00, 0x00, 0x00, 0x01, 0x18, 0x00, 0x00, 0x00,
  0x20, 0x00, 0x00, 0x00, 0x3c, 0x00, 0x00, 0x00, 0x0e, 0x00, 0x00, 0x00,
  0x00, 0x00, 0x00, 0x09, 0x58, 0x00, 0x00, 0x00, 0x02, 0x00, 0x00, 0x00,
  0xff, 0xff, 0xff, 0xff, 0x20, 0x00, 0x00, 0x00, 0xb4, 0xf3, 0xff, 0xff,
  0x08, 0x00, 0x00, 0x00, 0x10, 0x00, 0x00, 0x00, 0x01, 0x00, 0x00, 0x00,
  0x80, 0xff, 0xff, 0xff, 0xff, 0xff, 0xff, 0xff, 0x01, 0x00, 0x00, 0x00,
  0xc9, 0x12, 0x15, 0x3d, 0x23, 0x00, 0x00, 0x00, 0x6d, 0x6f, 0x64, 0x65,
  0x6c, 0x2f, 0x67, 0x6c, 0x6f, 0x62, 0x61, 0x6c, 0x5f, 0x61, 0x76, 0x65,
  0x72, 0x61, 0x67, 0x65, 0x5f, 0x70, 0x6f, 0x6f, 0x6c, 0x69, 0x6e, 0x67,
  0x32, 0x64, 0x2f, 0x4d, 0x65, 0x61, 0x6e, 0x00, 0x02, 0x00, 0x00, 0x00,
  0x01, 0x00, 0x00, 0x00, 0x20, 0x00, 0x00, 0x00, 0x52, 0xf4, 0xff, 0xff,
  0x00, 0x00, 0x00, 0x01, 0x18, 0x00, 0x00, 0x00, 0x28, 0x00, 0x00, 0x00,
  0x44, 0x00, 0x00, 0x00, 0x0d, 0x00, 0x00, 0x00, 0x00, 0x00, 0x00, 0x09,
  0xa8, 0x00, 0x00, 0x00, 0x04, 0x00, 0x00, 0x00, 0xff, 0xff, 0xff, 0xff,
  0x04, 0x00, 0x00, 0x00, 0x04, 0x00, 0x00, 0x00, 0x20, 0x00, 0x00, 0x00,
  0x3c, 0xf4, 0xff, 0xff, 0x08, 0x00, 0x00, 0x00, 0x10, 0x00, 0x00, 0x00,
  0x01, 0x00, 0x00, 0x00, 0x80, 0xff, 0xff, 0xff, 0xff, 0xff, 0xff, 0xff,
  0x01, 0x00, 0x00, 0x00, 0xa0, 0x9e, 0x0f, 0x3e, 0x6a, 0x00, 0x00, 0x00,
  0x6d, 0x6f, 0x64, 0x65, 0x6c, 0x2f, 0x61, 0x63, 0x74, 0x69, 0x76, 0x61,
  0x74, 0x69, 0x6f, 0x6e, 0x5f, 0x32, 0x2f, 0x52, 0x65, 0x6c, 0x75, 0x3b,
  0x6d, 0x6f, 0x64, 0x65, 0x6c, 0x2f, 0x63, 0x6f, 0x6e, 0x76, 0x32, 0x64,
  0x5f, 0x32, 0x2f, 0x42, 0x69, 0x61, 0x73, 0x41, 0x64, 0x64, 0x3b, 0x6d,
  0x6f, 0x64, 0x65, 0x6c, 0x2f, 0x63, 0x6f, 0x6e, 0x76, 0x32, 0x64, 0x5f,
  0x32, 0x2f, 0x43, 0x6f, 0x6e, 0x76, 0x32, 0x44, 0x3b, 0x6d, 0x6f, 0x64,
  0x65, 0x6c, 0x2f, 0x63, 0x6f, 0x6e, 0x76, 0x32, 0x64, 0x5f, 0x32, 0x2f,
  0x42, 0x69, 0x61, 0x73, 0x41, 0x64, 0x64, 0x2f, 0x52, 0x65, 0x61, 0x64,
  0x56, 0x61, 0x72, 0x69, 0x61, 0x62, 0x6c, 0x65, 0x4f, 0x70, 0x00, 0x00,
  0x04, 0x00, 0x00, 0x00, 0x01, 0x00, 0x00, 0x00, 0x04, 0x00, 0x00, 0x00,
  0x04, 0x00, 0x00, 0x00, 0x20, 0x00, 0x00, 0x00, 0x2a, 0xf5, 0xff, 0xff,
  0x00, 0x00, 0x00, 0x01, 0x18, 0x00, 0x00, 0x00, 0x28, 0x00, 0x00, 0x00,
  0x44, 0x00, 0x00, 0x00, 0x0c, 0x00, 0x00, 0x00, 0x00, 0x00, 0x00, 0x09,
  0xa8, 0x00, 0x00, 0x00, 0x04, 0x00, 0x00, 0x00, 0xff, 0xff, 0xff, 0xff,
  0x08, 0x00, 0x00, 0x00, 0x08, 0x00, 0x00, 0x00, 0x10, 0x00, 0x00, 0x00,
  0x14, 0xf5, 0xff, 0xff, 0x08, 0x00, 0x00, 0x00, 0x10, 0x00, 0x00, 0x00,
  0x01, 0x00, 0x00, 0x00, 0x80, 0xff, 0xff, 0xff, 0xff, 0xff, 0xff, 0xff,
  0x01, 0x00, 0x00, 0x00, 0x2c, 0x28, 0x8f, 0x3d, 0x6a, 0x00, 0x00, 0x00,
  0x6d, 0x6f, 0x64, 0x65, 0x6c, 0x2f, 0x61, 0x63, 0x74, 0x69, 0x76, 0x61,
  0x74, 0x69, 0x6f, 0x6e, 0x5f, 0x31, 0x2f, 0x52, 0x65, 0x6c, 0x75, 0x3b,
  0x6d, 0x6f, 0x64, 0x65, 0x6c, 0x2f, 0x63, 0x6f, 0x6e, 0x76, 0x32, 0x64,
  0x5f, 0x31, 0x2f, 0x42, 0x69, 0x61, 0x73, 0x41, 0x64, 0x64, 0x3b, 0x6d,
  0x6f, 0x64, 0x65, 0x6c, 0x2f, 0x63, 0x6f, 0x6e, 0x76, 0x32, 0x64, 0x5f,
  0x31, 0x2f, 0x43, 0x6f, 0x6e, 0x76, 0x32, 0x44, 0x3b, 0x6d, 0x6f, 0x64,
  0x65, 0x6c, 0x2f, 0x63, 0x6f, 0x6e, 0x76, 0x32, 0x64, 0x5f, 0x31, 0x2f,
  0x42, 0x69, 0x61, 0x73, 0x41, 0x64, 0x64, 0x2f, 0x52, 0x65, 0x61, 0x64,
  0x56, 0x61, 0x72, 0x69, 0x61, 0x62, 0x6c, 0x65, 0x4f, 0x70, 0x00, 0x00,
  0x04, 0x00, 0x00, 0x00, 0x01, 0x00, 0x00, 0x00, 0x08, 0x00, 0x00, 0x00,
  0x08, 0x00, 0x00, 0x00, 0x10, 0x00, 0x00, 0x00, 0x02, 0xf6, 0xff, 0xff,
  0x00, 0x00, 0x00, 0x01, 0x18, 0x00, 0x00, 0x00, 0x28, 0x00, 0x00, 0x00,
  0x44, 0x00, 0x00, 0x00, 0x0b, 0x00, 0x00, 0x00, 0x00, 0x00, 0x00, 0x09,
  0xa0, 0x00, 0x00, 0x00, 0x04, 0x00, 0x00, 0x00, 0xff, 0xff, 0xff, 0xff,
  0x10, 0x00, 0x00, 0x00, 0x10, 0x00, 0x00, 0x00, 0x08, 0x00, 0x00, 0x00,
  0xec, 0xf5, 0xff, 0xff, 0x08, 0x00, 0x00, 0x00, 0x10, 0x00, 0x00, 0x00,
  0x01, 0x00, 0x00, 0x00, 0x80, 0xff, 0xff, 0xff, 0xff, 0xff, 0xff, 0xff,
  0x01, 0x00, 0x00, 0x00, 0xd6, 0xbe, 0xda, 0x3c, 0x63, 0x00, 0x00, 0x00,
  0x6d, 0x6f, 0x64, 0x65, 0x6c, 0x2f, 0x61, 0x63, 0x74, 0x69, 0x76, 0x61,
  0x74, 0x69, 0x6f, 0x6e, 0x2f, 0x52, 0x65, 0x6c, 0x75, 0x3b, 0x6d, 0x6f,
  0x64, 0x65, 0x6c, 0x2f, 0x63, 0x6f, 0x6e, 0x76, 0x32, 0x64, 0x2f, 0x42,
  0x69, 0x61, 0x73, 0x41, 0x64, 0x64, 0x3b, 0x6d, 0x6f, 0x64, 0x65, 0x6c,
  0x2f, 0x63, 0x6f, 0x6e, 0x76, 0x32, 0x64, 0x2f, 0x43, 0x6f, 0x6e, 0x76,
  0x32, 0x44, 0x3b, 0x6d, 0x6f, 0x64, 0x65, 0x6c, 0x2f, 0x63, 0x6f, 0x6e,
  0x76, 0x32, 0x64, 0x2f, 0x42, 0x69, 0x61, 0x73, 0x41, 0x64, 0x64, 0x2f,
  0x52, 0x65, 0x61, 0x64, 0x56, 0x61, 0x72, 0x69, 0x61, 0x62, 0x6c, 0x65,
  0x4f, 0x70, 0x31, 0x00, 0x04, 0x00, 0x00, 0x00, 0x01, 0x00, 0x00, 0x00,
  0x10, 0x00, 0x00, 0x00, 0x10, 0x00, 0x00, 0x00, 0x08, 0x00, 0x00, 0x00,
  0x52, 0xf7, 0xff, 0xff, 0x00, 0x00, 0x00, 0x01, 0x14, 0x00, 0x00, 0x00,
  0x88, 0x00, 0x00, 0x00, 0x0a, 0x00, 0x00, 0x00, 0x00, 0x00, 0x00, 0x09,
  0xe4, 0x00, 0x00, 0x00, 0xa4, 0xf6, 0xff, 0xff, 0x08, 0x00, 0x00, 0x00,
  0x4c, 0x00, 0x00, 0x00, 0x08, 0x00, 0x00, 0x00, 0x00, 0x00, 0x00, 0x00,
  0x00, 0x00, 0x00, 0x00, 0x00, 0x00, 0x00, 0x00, 0x00, 0x00, 0x00, 0x00,
  0x00, 0x00, 0x00, 0x00, 0x00, 0x00, 0x00, 0x00, 0x00, 0x00, 0x00, 0x00,
  0x00, 0x00, 0x00, 0x00, 0x00, 0x00, 0x00, 0x00, 0x00, 0x00, 0x00, 0x00,
  0x00, 0x00, 0x00, 0x00, 0x00, 0x00, 0x00, 0x00, 0x00, 0x00, 0x00, 0x00,
  0x00, 0x00, 0x00, 0x00, 0x00, 0x00, 0x00, 0x00, 0x00, 0x00, 0x00, 0x00,
  0x00, 0x00, 0x00, 0x00, 0x08, 0x00, 0x00, 0x00, 0x33, 0x89, 0x50, 0x38,
  0xaa, 0x37, 0x18, 0x38, 0x70, 0xf8, 0xbb, 0x38, 0x92, 0xd2, 0x8c, 0x38,
  0x3c, 0xb7, 0x57, 0x38, 0x02, 0x58, 0x4b, 0x38, 0x5f, 0x4f, 0x25, 0x38,
  0xb8, 0xee, 0x72, 0x38, 0x62, 0x00, 0x00, 0x00, 0x6d, 0x6f, 0x64, 0x65,
  0x6c, 0x2f, 0x61, 0x63, 0x74, 0x69, 0x76, 0x61, 0x74, 0x69, 0x6f, 0x6e,
  0x2f, 0x52, 0x65, 0x6c, 0x75, 0x3b, 0x6d, 0x6f, 0x64, 0x65, 0x6c, 0x2f,
  0x63, 0x6f, 0x6e, 0x76, 0x32, 0x64, 0x2f, 0x42, 0x69, 0x61, 0x73, 0x41,
  0x64, 0x64, 0x3b, 0x6d, 0x6f, 0x64, 0x65, 0x6c, 0x2f, 0x63, 0x6f, 0x6e,
  0x76, 0x32, 0x64, 0x2f, 0x43, 0x6f, 0x6e, 0x76, 0x32, 0x44, 0x3b, 0x6d,
  0x6f, 0x64, 0x65, 0x6c, 0x2f, 0x63, 0x6f, 0x6e, 0x76, 0x32, 0x64, 0x2f,
  0x42, 0x69, 0x61, 0x73, 0x41, 0x64, 0x64, 0x2f, 0x52, 0x65, 0x61, 0x64,
  0x56, 0x61, 0x72, 0x69, 0x61, 0x62, 0x6c, 0x65, 0x4f, 0x70, 0x00, 0x00,
  0x04, 0x00, 0x00, 0x00, 0x08, 0x00, 0x00, 0x00, 0x03, 0x00, 0x00, 0x00,
  0x03, 0x00, 0x00, 0x00, 0x03, 0x00, 0x00, 0x00, 0x62, 0xf8, 0xff, 0xff,
  0x00, 0x00, 0x00, 0x01, 0x14, 0x00, 0x00, 0x00, 0x84, 0x00, 0x00, 0x00,
  0x09, 0x00, 0x00, 0x00, 0x00, 0x00, 0x00, 0x02, 0xa0, 0x00, 0x00, 0x00,
  0xb4, 0xf7, 0xff, 0xff, 0x08, 0x00, 0x00, 0x00, 0x48, 0x00, 0x00, 0x00,
  0x08, 0x00, 0x00, 0x00, 0x00, 0x00, 0x00, 0x00, 0x00, 0x00, 0x00, 0x00,
  0x00, 0x00, 0x00, 0x00, 0x00, 0x00, 0x00, 0x00, 0x00, 0x00, 0x00, 0x00,
  0x00, 0x00, 0x00, 0x00, 0x00, 0x00, 0x00, 0x00, 0x00, 0x00, 0x00, 0x00,
  0x00, 0x00, 0x00, 0x00, 0x00, 0x00, 0x00, 0x00, 0x00, 0x00, 0x00, 0x00,
  0x00, 0x00, 0x00, 0x00, 0x00, 0x00, 0x00, 0x00, 0x00, 0x00, 0x00, 0x00,
  0x00, 0x00, 0x00, 0x00, 0x00, 0x00, 0x00, 0x00, 0x08, 0x00, 0x00, 0x00,
  0x33, 0x89, 0x50, 0x38, 0xaa, 0x37, 0x18, 0x38, 0x70, 0xf8, 0xbb, 0x38,
  0x92, 0xd2, 0x8c, 0x38, 0x3c, 0xb7, 0x57, 0x38, 0x02, 0x58, 0x4b, 0x38,
  0x5f, 0x4f, 0x25, 0x38, 0xb8, 0xee, 0x72, 0x38, 0x23, 0x00, 0x00, 0x00,
  0x6d, 0x6f, 0x64, 0x65, 0x6c, 0x2f, 0x63, 0x6f, 0x6e, 0x76, 0x32, 0x64,
  0x2f, 0x42, 0x69, 0x61, 0x73, 0x41, 0x64, 0x64, 0x2f, 0x52, 0x65, 0x61,
  0x64, 0x56, 0x61, 0x72, 0x69, 0x61, 0x62, 0x6c, 0x65, 0x4f, 0x70, 0x00,
  0x01, 0x00, 0x00, 0x00, 0x08, 0x00, 0x00, 0x00, 0x22, 0xf9, 0xff, 0xff,
  0x00, 0x00, 0x00, 0x01, 0x14, 0x00, 0x00, 0x00, 0xe4, 0x00, 0x00, 0x00,
  0x08, 0x00, 0x00, 0x00, 0x00, 0x00, 0x00, 0x09, 0xf4, 0x00, 0x00, 0x00,
  0x74, 0xf8, 0xff, 0xff, 0x08, 0x00, 0x00, 0x00, 0x88, 0x00, 0x00, 0x00,
  0x10, 0x00, 0x00, 0x00, 0x00, 0x00, 0x00, 0x00, 0x00, 0x00, 0x00, 0x00,
  0x00, 0x00, 0x00, 0x00, 0x00, 0x00, 0x00, 0x00, 0x00, 0x00, 0x00, 0x00,
  0x00, 0x00, 0x00, 0x00, 0x00, 0x00, 0x00, 0x00, 0x00, 0x00, 0x00, 0x00,
  0x00, 0x00, 0x00, 0x00, 0x00, 0x00, 0x00, 0x00, 0x00, 0x00, 0x00, 0x00,
  0x00, 0x00, 0x00, 0x00, 0x00, 0x00, 0x00, 0x00, 0x00, 0x00, 0x00, 0x00,
  0x00, 0x00, 0x00, 0x00, 0x00, 0x00, 0x00, 0x00, 0x00, 0x00, 0x00, 0x00,
  0x00, 0x00, 0x00, 0x00, 0x00, 0x00, 0x00, 0x00, 0x00, 0x00, 0x00, 0x00,
  0x00, 0x00, 0x00, 0x00, 0x00, 0x00, 0x00, 0x00, 0x00, 0x00, 0x00, 0x00,
  0x00, 0x00, 0x00, 0x00, 0x00, 0x00, 0x00, 0x00, 0x00, 0x00, 0x00, 0x00,
  0x00, 0x00, 0x00, 0x00, 0x00, 0x00, 0x00, 0x00, 0x00, 0x00, 0x00, 0x00,
  0x00, 0x00, 0x00, 0x00, 0x00, 0x00, 0x00, 0x00, 0x00, 0x00, 0x00, 0x00,
  0x10, 0x00, 0x00, 0x00, 0x39, 0x38, 0xa6, 0x3b, 0x1c, 0xd6, 0xae, 0x3b,
  0x0c, 0x37, 0xbf, 0x3b, 0xf1, 0xfc, 0x60, 0x3c, 0x81, 0x2a, 0x90, 0x3c,
  0xb9, 0x78, 0xf8, 0x3b, 0x5b, 0x20, 0x69, 0x3c, 0x5d, 0x4a, 0x20, 0x3c,
  0x00, 0x76, 0x8e, 0x3c, 0x45, 0x18, 0x27, 0x3c, 0x41, 0x72, 0xcc, 0x3b,
  0xf6, 0xed, 0x31, 0x3c, 0xec, 0x19, 0x0f, 0x3c, 0x57, 0x44, 0xbd, 0x3b,
  0xe4, 0x1c, 0x4d, 0x3c, 0x71, 0x5c, 0xd0, 0x3b, 0x15, 0x00, 0x00, 0x00,
  0x6d, 0x6f, 0x64, 0x65, 0x6c, 0x2f, 0x63, 0x6f, 0x6e, 0x76, 0x32, 0x64,
  0x5f, 0x31, 0x2f, 0x43, 0x6f, 0x6e, 0x76, 0x32, 0x44, 0x00, 0x00, 0x00,
  0x04, 0x00, 0x00, 0x00, 0x10, 0x00, 0x00, 0x00, 0x03, 0x00, 0x00, 0x00,
  0x03, 0x00, 0x00, 0x00, 0x08, 0x00, 0x00, 0x00, 0x42, 0xfa, 0xff, 0xff,
  0x00, 0x00, 0x00, 0x01, 0x14, 0x00, 0x00, 0x00, 0xe8, 0x00, 0x00, 0x00,
  0x07, 0x00, 0x00, 0x00, 0x00, 0x00, 0x00, 0x02, 0x08, 0x01, 0x00, 0x00,
  0x94, 0xf9, 0xff, 0xff, 0x08, 0x00, 0x00, 0x00, 0x8c, 0x00, 0x00, 0x00,
  0x10, 0x00, 0x00, 0x00, 0x00, 0x00, 0x00, 0x00, 0x00, 0x00, 0x00, 0x00,
  0x00, 0x00, 0x00, 0x00, 0x00, 0x00, 0x00, 0x00, 0x00, 0x00, 0x00, 0x00,
  0x00, 0x00, 0x00, 0x00, 0x00, 0x00, 0x00, 0x00, 0x00, 0x00, 0x00, 0x00,
  0x00, 0x00, 0x00, 0x00, 0x00, 0x00, 0x00, 0x00, 0x00, 0x00, 0x00, 0x00,
  0x00, 0x00, 0x00, 0x00, 0x00, 0x00, 0x00, 0x00, 0x00, 0x00, 0x00, 0x00,
  0x00, 0x00, 0x00, 0x00, 0x00, 0x00, 0x00, 0x00, 0x00, 0x00, 0x00, 0x00,
  0x00, 0x00, 0x00, 0x00, 0x00, 0x00, 0x00, 0x00, 0x00, 0x00, 0x00, 0x00,
  0x00, 0x00, 0x00, 0x00, 0x00, 0x00, 0x00, 0x00, 0x00, 0x00, 0x00, 0x00,
  0x00, 0x00, 0x00, 0x00, 0x00, 0x00, 0x00, 0x00, 0x00, 0x00, 0x00, 0x00,
  0x00, 0x00, 0x00, 0x00, 0x00, 0x00, 0x00, 0x00, 0x00, 0x00, 0x00, 0x00,
  0x00, 0x00, 0x00, 0x00, 0x00, 0x00, 0x00, 0x00, 0x00, 0x00, 0x00, 0x00,
  0x00, 0x00, 0x00, 0x00, 0x10, 0x00, 0x00, 0x00, 0xc9, 0x07, 0x0e, 0x39,
  0xa9, 0x64, 0x15, 0x39, 0x6b, 0x63, 0x23, 0x39, 0x1d, 0x3f, 0xc0, 0x39,
  0x54, 0x5f, 0xf6, 0x39, 0x07, 0x50, 0x54, 0x39, 0x56, 0x33, 0xc7, 0x39,
  0xd0, 0xf6, 0x88, 0x39, 0x5d, 0x75, 0xf3, 0x39, 0x3a, 0xc7, 0x8e, 0x39,
  0xb3, 0xb1, 0x2e, 0x39, 0x47, 0x09, 0x98, 0x39, 0x80, 0x8d, 0x74, 0x39,
  0x49, 0xb9, 0x21, 0x39, 0x81, 0x43, 0xaf, 0x39, 0x0b, 0x0a, 0x32, 0x39,
  0x25, 0x00, 0x00, 0x00, 0x6d, 0x6f, 0x64, 0x65, 0x6c, 0x2f, 0x63, 0x6f,
  0x6e, 0x76, 0x32, 0x64, 0x5f, 0x31, 0x2f, 0x42, 0x69, 0x61, 0x73, 0x41,
  0x64, 0x64, 0x2f, 0x52, 0x65, 0x61, 0x64, 0x56, 0x61, 0x72, 0x69, 0x61,
  0x62, 0x6c, 0x65, 0x4f, 0x70, 0x00, 0x00, 0x00, 0x01, 0x00, 0x00, 0x00,
  0x10, 0x00, 0x00, 0x00, 0x6a, 0xfb, 0xff, 0xff, 0x00, 0x00, 0x00, 0x01,
  0x14, 0x00, 0x00, 0x00, 0xa4, 0x01, 0x00, 0x00, 0x06, 0x00, 0x00, 0x00,
  0x00, 0x00, 0x00, 0x09, 0xb4, 0x01, 0x00, 0x00, 0xbc, 0xfa, 0xff, 0xff,
  0x08, 0x00, 0x00, 0x00, 0x08, 0x01, 0x00, 0x00, 0x20, 0x00, 0x00, 0x00,
  0x00, 0x00, 0x00, 0x00, 0x00, 0x00, 0x00, 0x00, 0x00, 0x00, 0x00, 0x00,
  0x00, 0x00, 0x00, 0x00, 0x00, 0x00, 0x00, 0x00, 0x00, 0x00, 0x00, 0x00,
  0x00, 0x00, 0x00, 0x00, 0x00, 0x00, 0x00, 0x00, 0x00, 0x00, 0x00, 0x00,
  0x00, 0x00, 0x00, 0x00, 0x00, 0x00, 0x00, 0x00, 0x00, 0x00, 0x00, 0x00,
  0x00, 0x00, 0x00, 0x00, 0x00, 0x00, 0x00, 0x00, 0x00, 0x00, 0x00, 0x00,
  0x00, 0x00, 0x00, 0x00, 0x00, 0x00, 0x00, 0x00, 0x00, 0x00, 0x00, 0x00,
  0x00, 0x00, 0x00, 0x00, 0x00, 0x00, 0x00, 0x00, 0x00, 0x00, 0x00, 0x00,
  0x00, 0x00, 0x00, 0x00, 0x00, 0x00, 0x00, 0x00, 0x00, 0x00, 0x00, 0x00,
  0x00, 0x00, 0x00, 0x00, 0x00, 0x00, 0x00, 0x00, 0x00, 0x00, 0x00, 0x00,
  0x00, 0x00, 0x00, 0x00, 0x00, 0x00, 0x00, 0x00, 0x00, 0x00, 0x00, 0x00,
  0x00, 0x00, 0x00, 0x00, 0x00, 0x00, 0x00, 0x00, 0x00, 0x00, 0x00, 0x00,
  0x00, 0x00, 0x00, 0x00, 0x00, 0x00, 0x00, 0x00, 0x00, 0x00, 0x00, 0x00,
  0x00, 0x00, 0x00, 0x00, 0x00, 0x00, 0x00, 0x00, 0x00, 0x00, 0x00, 0x00,
  0x00, 0x00, 0x00, 0x00, 0x00, 0x00, 0x00, 0x00, 0x00, 0x00, 0x00, 0x00,
  0x00, 0x00, 0x00, 0x00, 0x00, 0x00, 0x00, 0x00, 0x00, 0x00, 0x00, 0x00,
  0x00, 0x00, 0x00, 0x00, 0x00, 0x00, 0x00, 0x00, 0x00, 0x00, 0x00, 0x00,
  0x00, 0x00, 0x00, 0x00, 0x00, 0x00, 0x00, 0x00, 0x00, 0x00, 0x00, 0x00,
  0x00, 0x00, 0x00, 0x00, 0x00, 0x00, 0x00, 0x00, 0x00, 0x00, 0x00, 0x00,
  0x00, 0x00, 0x00, 0x00, 0x00, 0x00, 0x00, 0x00, 0x00, 0x00, 0x00, 0x00,
  0x00, 0x00, 0x00, 0x00, 0x00, 0x00, 0x00, 0x00, 0x00, 0x00, 0x00, 0x00,
  0x00, 0x00, 0x00, 0x00, 0x00, 0x00, 0x00, 0x00, 0x00, 0x00, 0x00, 0x00,
  0x00, 0x00, 0x00, 0x00, 0x20, 0x00, 0x00, 0x00, 0xfd, 0xda, 0x2a, 0x3c,
  0xff, 0xab, 0x10, 0x3c, 0xe1, 0xa6, 0x6f, 0x3b, 0x83, 0xd6, 0x19, 0x3c,
  0x76, 0x1c, 0x43, 0x3c, 0x69, 0x3a, 0xc0, 0x3b, 0xcc, 0x60, 0x40, 0x3c,
  0x0a, 0xb2, 0x0f, 0x3c, 0x41, 0xc6, 0xcb, 0x3b, 0x6d, 0x1e, 0xb5, 0x3b,
  0x6f, 0x41, 0x00, 0x3c, 0xb2, 0x25, 0x09, 0x3c, 0x42, 0x69, 0x3e, 0x3c,
  0xb3, 0x40, 0x22, 0x3c, 0xde, 0xf4, 0x2b, 0x3c, 0x03, 0x6d, 0x3a, 0x3c,
  0x4d, 0x1c, 0x14, 0x3c, 0x0f, 0x81, 0xc7, 0x3b, 0xc6, 0xba, 0xfc, 0x3b,
  0x28, 0x03, 0x0a, 0x3c, 0x43, 0xfc, 0xc8, 0x3b, 0xb5, 0x3c, 0xb8, 0x3b,
  0xff, 0xfb, 0xf9, 0x3b, 0x48, 0x36, 0x13, 0x3c, 0x46, 0x3e, 0xde, 0x3b,
  0xea, 0x9b, 0x03, 0x3c, 0x92, 0xa6, 0x14, 0x3c, 0x85, 0x24, 0x15, 0x3c,
  0xd4, 0xa5, 0x27, 0x3c, 0xce, 0x1a, 0xe1, 0x3b, 0x56, 0x21, 0xac, 0x3b,
  0x05, 0x1d, 0xcd, 0x3b, 0x15, 0x00, 0x00, 0x00, 0x6d, 0x6f, 0x64, 0x65,
  0x6c, 0x2f, 0x63, 0x6f, 0x6e, 0x76, 0x32, 0x64, 0x5f, 0x32, 0x2f, 0x43,
  0x6f, 0x6e, 0x76, 0x32, 0x44, 0x00, 0x00, 0x00, 0x04, 0x00, 0x00, 0x00,
  0x20, 0x00, 0x00, 0x00, 0x03, 0x00, 0x00, 0x00, 0x03, 0x00, 0x00, 0x00,
  0x10, 0x00, 0x00, 0x00, 0x4a, 0xfd, 0xff, 0xff, 0x00, 0x00, 0x00, 0x01,
  0x14, 0x00, 0x00, 0x00, 0xa8, 0x01, 0x00, 0x00, 0x05, 0x00, 0x00, 0x00,
  0x00, 0x00, 0x00, 0x02, 0xc8, 0x01, 0x00, 0x00, 0x9c, 0xfc, 0xff, 0xff,
  0x08, 0x00, 0x00, 0x00, 0x0c, 0x01, 0x00, 0x00, 0x20, 0x00, 0x00, 0x00,
  0x00, 0x00, 0x00, 0x00, 0x00, 0x00, 0x00, 0x00, 0x00, 0x00, 0x00, 0x00,
  0x00, 0x00, 0x00, 0x00, 0x00, 0x00, 0x00, 0x00, 0x00, 0x00, 0x00, 0x00,
  0x00, 0x00, 0x00, 0x00, 0x00, 0x00, 0x00, 0x00, 0x00, 0x00, 0x00, 0x00,
  0x00, 0x00, 0x00, 0x00, 0x00, 0x00, 0x00, 0x00, 0x00, 0x00, 0x00, 0x00,
  0x00, 0x00, 0x00, 0x00, 0x00, 0x00, 0x00, 0x00, 0x00, 0x00, 0x00, 0x00,
  0x00, 0x00, 0x00, 0x00, 0x00, 0x00, 0x00, 0x00, 0x00, 0x00, 0x00, 0x00,
  0x00, 0x00, 0x00, 0x00, 0x00, 0x00, 0x00, 0x00, 0x00, 0x00, 0x00, 0x00,
  0x00, 0x00, 0x00, 0x00, 0x00, 0x00, 0x00, 0x00, 0x00, 0x00, 0x00, 0x00,
  0x00, 0x00, 0x00, 0x00, 0x00, 0x00, 0x00, 0x00, 0x00, 0x00, 0x00, 0x00,
  0x00, 0x00, 0x00, 0x00, 0x00, 0x00, 0x00, 0x00, 0x00, 0x00, 0x00, 0x00,
  0x00, 0x00, 0x00, 0x00, 0x00, 0x00, 0x00, 0x00, 0x00, 0x00, 0x00, 0x00,
  0x00, 0x00, 0x00, 0x00, 0x00, 0x00, 0x00, 0x00, 0x00, 0x00, 0x00, 0x00,
  0x00, 0x00, 0x00, 0x00, 0x00, 0x00, 0x00, 0x00, 0x00, 0x00, 0x00, 0x00,
  0x00, 0x00, 0x00, 0x00, 0x00, 0x00, 0x00, 0x00, 0x00, 0x00, 0x00, 0x00,
  0x00, 0x00, 0x00, 0x00, 0x00, 0x00, 0x00, 0x00, 0x00, 0x00, 0x00, 0x00,
  0x00, 0x00, 0x00, 0x00, 0x00, 0x00, 0x00, 0x00, 0x00, 0x00, 0x00, 0x00,
  0x00, 0x00, 0x00, 0x00, 0x00, 0x00, 0x00, 0x00, 0x00, 0x00, 0x00, 0x00,
  0x00, 0x00, 0x00, 0x00, 0x00, 0x00, 0x00, 0x00, 0x00, 0x00, 0x00, 0x00,
  0x00, 0x00, 0x00, 0x00, 0x00, 0x00, 0x00, 0x00, 0x00, 0x00, 0x00, 0x00,
  0x00, 0x00, 0x00, 0x00, 0x00, 0x00, 0x00, 0x00, 0x00, 0x00, 0x00, 0x00,
  0x00, 0x00, 0x00, 0x00, 0x00, 0x00, 0x00, 0x00, 0x00, 0x00, 0x00, 0x00,
  0x00, 0x00, 0x00, 0x00, 0x00, 0x00, 0x00, 0x00, 0x20, 0x00, 0x00, 0x00,
  0x46, 0x16, 0x3f, 0x3a, 0x8e, 0xcd, 0x21, 0x3a, 0xd3, 0x03, 0x86, 0x39,
  0xee, 0x0d, 0x2c, 0x3a, 0x08, 0x37, 0x5a, 0x3a, 0x96, 0xfd, 0xd6, 0x39,
  0x84, 0x28, 0x57, 0x3a, 0x00, 0xb6, 0x20, 0x3a, 0x71, 0xe7, 0xe3, 0x39,
  0xd6, 0x90, 0xca, 0x39, 0x5b, 0x71, 0x0f, 0x3a, 0x28, 0x63, 0x19, 0x3a,
  0x5a, 0xf5, 0x54, 0x3a, 0x34, 0x77, 0x35, 0x3a, 0x88, 0x51, 0x40, 0x3a,
  0x4c, 0x80, 0x50, 0x3a, 0x1a, 0xa6, 0x25, 0x3a, 0xcc, 0x20, 0xdf, 0x39,
  0xfd, 0x53, 0x0d, 0x3a, 0xd7, 0x5a, 0x1a, 0x3a, 0xe7, 0xc8, 0xe0, 0x39,
  0xa5, 0x0d, 0xce, 0x39, 0xfe, 0xca, 0x0b, 0x3a, 0xd8, 0xa4, 0x24, 0x3a,
  0x52, 0x8f, 0xf8, 0x39, 0x7d, 0x31, 0x13, 0x3a, 0xbe, 0x40, 0x26, 0x3a,
  0x9b, 0xcd, 0x26, 0x3a, 0xe0, 0x7f, 0x3b, 0x3a, 0x98, 0xc2, 0xfb, 0x39,
  0x44, 0x83, 0xc0, 0x39, 0xcb, 0x66, 0xe5, 0x39, 0x25, 0x00, 0x00, 0x00,
  0x6d, 0x6f, 0x64, 0x65, 0x6c, 0x2f, 0x63, 0x6f, 0x6e, 0x76, 0x32, 0x64,
  0x5f, 0x32, 0x2f, 0x42, 0x69, 0x61, 0x73, 0x41, 0x64, 0x64, 0x2f, 0x52,
  0x65, 0x61, 0x64, 0x56, 0x61, 0x72, 0x69, 0x61, 0x62, 0x6c, 0x65, 0x4f,
  0x70, 0x00, 0x00, 0x00, 0x01, 0x00, 0x00, 0x00, 0x20, 0x00, 0x00, 0x00,
  0x32, 0xff, 0xff, 0xff, 0x00, 0x00, 0x00, 0x01, 0x14, 0x00, 0x00, 0x00,
  0x30, 0x00, 0x00, 0x00, 0x04, 0x00, 0x00, 0x00, 0x00, 0x00, 0x00, 0x09,
  0x3c, 0x00, 0x00, 0x00, 0x84, 0xfe, 0xff, 0xff, 0x08, 0x00, 0x00, 0x00,
  0x10, 0x00, 0x00, 0x00, 0x01, 0x00, 0x00, 0x00, 0x00, 0x00, 0x00, 0x00,
  0x00, 0x00, 0x00, 0x00, 0x01, 0x00, 0x00, 0x00, 0x7f, 0xef, 0x39, 0x3c,
  0x12, 0x00, 0x00, 0x00, 0x6d, 0x6f, 0x64, 0x65, 0x6c, 0x2f, 0x64, 0x65,
  0x6e, 0x73, 0x65, 0x2f, 0x4d, 0x61, 0x74, 0x4d, 0x75, 0x6c, 0x00, 0x00,
  0x02, 0x00, 0x00, 0x00, 0x05, 0x00, 0x00, 0x00, 0x20, 0x00, 0x00, 0x00,
  0x92, 0xff, 0xff, 0xff, 0x00, 0x00, 0x00, 0x01, 0x14, 0x00, 0x00, 0x00,
  0x30, 0x00, 0x00, 0x00, 0x03, 0x00, 0x00, 0x00, 0x00, 0x00, 0x00, 0x02,
  0x4c, 0x00, 0x00, 0x00, 0xe4, 0xfe, 0xff, 0xff, 0x08, 0x00, 0x00, 0x00,
  0x10, 0x00, 0x00, 0x00, 0x01, 0x00, 0x00, 0x00, 0x00, 0x00, 0x00, 0x00,
  0x00, 0x00, 0x00, 0x00, 0x01, 0x00, 0x00, 0x00, 0x13, 0x8c, 0xd8, 0x39,
  0x22, 0x00, 0x00, 0x00, 0x6d, 0x6f, 0x64, 0x65, 0x6c, 0x2f, 0x64, 0x65,
  0x6e, 0x73, 0x65, 0x2f, 0x42, 0x69, 0x61, 0x73, 0x41, 0x64, 0x64, 0x2f,
  0x52, 0x65, 0x61, 0x64, 0x56, 0x61, 0x72, 0x69, 0x61, 0x62, 0x6c, 0x65,
  0x4f, 0x70, 0x00, 0x00, 0x01, 0x00, 0x00, 0x00, 0x05, 0x00, 0x00, 0x00,
  0x00, 0x00, 0x16, 0x00, 0x1c, 0x00, 0x18, 0x00, 0x17, 0x00, 0x10, 0x00,
  0x0c, 0x00, 0x08, 0x00, 0x00, 0x00, 0x00, 0x00, 0x00, 0x00, 0x07, 0x00,
  0x16, 0x00, 0x00, 0x00, 0x00, 0x00, 0x00, 0x01, 0x18, 0x00, 0x00, 0x00,
  0x18, 0x00, 0x00, 0x00, 0x02, 0x00, 0x00, 0x00, 0x00, 0x00, 0x00, 0x02,
  0x48, 0x00, 0x00, 0x00, 0x04, 0x00, 0x04, 0x00, 0x04, 0x00, 0x00, 0x00,
  0x35, 0x00, 0x00, 0x00, 0x6d, 0x6f, 0x64, 0x65, 0x6c, 0x2f, 0x67, 0x6c,
  0x6f, 0x62, 0x61, 0x6c, 0x5f, 0x61, 0x76, 0x65, 0x72, 0x61, 0x67, 0x65,
  0x5f, 0x70, 0x6f, 0x6f, 0x6c, 0x69, 0x6e, 0x67, 0x32, 0x64, 0x2f, 0x4d,
  0x65, 0x61, 0x6e, 0x2f, 0x72, 0x65, 0x64, 0x75, 0x63, 0x74, 0x69, 0x6f,
  0x6e, 0x5f, 0x69, 0x6e, 0x64, 0x69, 0x63, 0x65, 0x73, 0x00, 0x00, 0x00,
  0x01, 0x00, 0x00, 0x00, 0x02, 0x00, 0x00, 0x00, 0x00, 0x00, 0x16, 0x00,
  0x20, 0x00, 0x1c, 0x00, 0x1b, 0x00, 0x14, 0x00, 0x10, 0x00, 0x0c, 0x00,
  0x00, 0x00, 0x00, 0x00, 0x08, 0x00, 0x07, 0x00, 0x16, 0x00, 0x00, 0x00,
  0x00, 0x00, 0x00, 0x01, 0x18, 0x00, 0x00, 0x00, 0x34, 0x00, 0x00, 0x00,
  0x54, 0x00, 0x00, 0x00, 0x01, 0x00, 0x00, 0x00, 0x00, 0x00, 0x00, 0x09,
  0x68, 0x00, 0x00, 0x00, 0x04, 0x00, 0x00, 0x00, 0xff, 0xff, 0xff, 0xff,
  0x20, 0x00, 0x00, 0x00, 0x20, 0x00, 0x00, 0x00, 0x03, 0x00, 0x00, 0x00,
  0x0c, 0x00, 0x0c, 0x00, 0x00, 0x00, 0x00, 0x00, 0x08, 0x00, 0x04, 0x00,
  0x0c, 0x00, 0x00, 0x00, 0x08, 0x00, 0x00, 0x00, 0x14, 0x00, 0x00, 0x00,
  0x01, 0x00, 0x00, 0x00, 0x80, 0xff, 0xff, 0xff, 0xff, 0xff, 0xff, 0xff,
  0x00, 0x00, 0x00, 0x00, 0x01, 0x00, 0x00, 0x00, 0x00, 0x00, 0x80, 0x3f,
  0x19, 0x00, 0x00, 0x00, 0x73, 0x65, 0x72, 0x76, 0x69, 0x6e, 0x67, 0x5f,
  0x64, 0x65, 0x66, 0x61, 0x75, 0x6c, 0x74, 0x5f, 0x69, 0x6e, 0x70, 0x75,
  0x74, 0x5f, 0x31, 0x3a, 0x30, 0x00, 0x00, 0x00, 0x04, 0x00, 0x00, 0x00,
  0x01, 0x00, 0x00, 0x00, 0x20, 0x00, 0x00, 0x00, 0x20, 0x00, 0x00, 0x00,
  0x03, 0x00, 0x00, 0x00, 0x04, 0x00, 0x00, 0x00, 0x4c, 0x00, 0x00, 0x00,
  0x2c, 0x00, 0x00, 0x00, 0x18, 0x00, 0x00, 0x00, 0x04, 0x00, 0x00, 0x00,
  0xd0, 0xff, 0xff, 0xff, 0x19, 0x00, 0x00, 0x00, 0x02, 0x00, 0x00, 0x00,
  0x00, 0x00, 0x00, 0x19, 0xe0, 0xff, 0xff, 0xff, 0x09, 0x00, 0x00, 0x00,
  0x04, 0x00, 0x00, 0x00, 0x00, 0x00, 0x00, 0x09, 0xf0, 0xff, 0xff, 0xff,
  0x28, 0x00, 0x00, 0x00, 0x02, 0x00, 0x00, 0x00, 0x00, 0x00, 0x00, 0x28,
  0x0c, 0x00, 0x10, 0x00, 0x0f, 0x00, 0x00, 0x00, 0x08, 0x00, 0x04, 0x00,
  0x0c, 0x00, 0x00, 0x00, 0x03, 0x00, 0x00, 0x00, 0x03, 0x00, 0x00, 0x00,
  0x00, 0x00, 0x00, 0x03
};
unsigned int g_magic_wand_model_data_len = 11224;
