/* Copyright 2020 The TensorFlow Authors. All Rights Reserved.
Licensed under the Apache License, Version 2.0 (the "License");
you may not use this file except in compliance with the License.
You may obtain a copy of the License at
    http://www.apache.org/licenses/LICENSE-2.0
Unless required by applicable law or agreed to in writing, software
distributed under the License is distributed on an "AS IS" BASIS,
WITHOUT WARRANTIES OR CONDITIONS OF ANY KIND, either express or implied.
See the License for the specific language governing permissions and
limitations under the License.
==============================================================================*/

unsigned char g_magic_wand_model_data[] = {
  0x20, 0x00, 0x00, 0x00, 0x54, 0x46, 0x4c, 0x33, 0x00, 0x00, 0x00, 0x00,
  0x14, 0x00, 0x20, 0x00, 0x1c, 0x00, 0x18, 0x00, 0x14, 0x00, 0x10, 0x00,
  0x0c, 0x00, 0x00, 0x00, 0x08, 0x00, 0x04, 0x00, 0x14, 0x00, 0x00, 0x00,
  0x1c, 0x00, 0x00, 0x00, 0x8c, 0x00, 0x00, 0x00, 0xe4, 0x00, 0x00, 0x00,
  0x30, 0x1b, 0x00, 0x00, 0x40, 0x1b, 0x00, 0x00, 0xc0, 0x2b, 0x00, 0x00,
  0x03, 0x00, 0x00, 0x00, 0x01, 0x00, 0x00, 0x00, 0x10, 0x00, 0x00, 0x00,
  0x00, 0x00, 0x0a, 0x00, 0x10, 0x00, 0x0c, 0x00, 0x08, 0x00, 0x04, 0x00,
  0x0a, 0x00, 0x00, 0x00, 0x0c, 0x00, 0x00, 0x00, 0x1c, 0x00, 0x00, 0x00,
  0x38, 0x00, 0x00, 0x00, 0x0f, 0x00, 0x00, 0x00, 0x73, 0x65, 0x72, 0x76,
  0x69, 0x6e, 0x67, 0x5f, 0x64, 0x65, 0x66, 0x61, 0x75, 0x6c, 0x74, 0x00,
  0x01, 0x00, 0x00, 0x00, 0x04, 0x00, 0x00, 0x00, 0x9c, 0xff, 0xff, 0xff,
  0x0f, 0x00, 0x00, 0x00, 0x04, 0x00, 0x00, 0x00, 0x07, 0x00, 0x00, 0x00,
  0x64, 0x65, 0x6e, 0x73, 0x65, 0x5f, 0x36, 0x00, 0x01, 0x00, 0x00, 0x00,
  0x04, 0x00, 0x00, 0x00, 0xba, 0xe4, 0xff, 0xff, 0x04, 0x00, 0x00, 0x00,
  0x07, 0x00, 0x00, 0x00, 0x69, 0x6e, 0x70, 0x75, 0x74, 0x5f, 0x37, 0x00,
  0x02, 0x00, 0x00, 0x00, 0x34, 0x00, 0x00, 0x00, 0x04, 0x00, 0x00, 0x00,
  0xdc, 0xff, 0xff, 0xff, 0x12, 0x00, 0x00, 0x00, 0x04, 0x00, 0x00, 0x00,
  0x13, 0x00, 0x00, 0x00, 0x43, 0x4f, 0x4e, 0x56, 0x45, 0x52, 0x53, 0x49,
  0x4f, 0x4e, 0x5f, 0x4d, 0x45, 0x54, 0x41, 0x44, 0x41, 0x54, 0x41, 0x00,
  0x08, 0x00, 0x0c, 0x00, 0x08, 0x00, 0x04, 0x00, 0x08, 0x00, 0x00, 0x00,
  0x11, 0x00, 0x00, 0x00, 0x04, 0x00, 0x00, 0x00, 0x13, 0x00, 0x00, 0x00,
  0x6d, 0x69, 0x6e, 0x5f, 0x72, 0x75, 0x6e, 0x74, 0x69, 0x6d, 0x65, 0x5f,
  0x76, 0x65, 0x72, 0x73, 0x69, 0x6f, 0x6e, 0x00, 0x13, 0x00, 0x00, 0x00,
  0x48, 0x1a, 0x00, 0x00, 0x40, 0x1a, 0x00, 0x00, 0x28, 0x1a, 0x00, 0x00,
  0x04, 0x1a, 0x00, 0x00, 0x54, 0x19, 0x00, 0x00, 0xc4, 0x18, 0x00, 0x00,
  0xb4, 0x06, 0x00, 0x00, 0x64, 0x06, 0x00, 0x00, 0xd4, 0x01, 0x00, 0x00,
  0xa4, 0x01, 0x00, 0x00, 0xbc, 0x00, 0x00, 0x00, 0xb4, 0x00, 0x00, 0x00,
  0xac, 0x00, 0x00, 0x00, 0xa4, 0x00, 0x00, 0x00, 0x9c, 0x00, 0x00, 0x00,
  0x94, 0x00, 0x00, 0x00, 0x8c, 0x00, 0x00, 0x00, 0x6c, 0x00, 0x00, 0x00,
  0x04, 0x00, 0x00, 0x00, 0x7a, 0xe5, 0xff, 0xff, 0x04, 0x00, 0x00, 0x00,
  0x58, 0x00, 0x00, 0x00, 0x0c, 0x00, 0x00, 0x00, 0x08, 0x00, 0x0e, 0x00,
  0x08, 0x00, 0x04, 0x00, 0x08, 0x00, 0x00, 0x00, 0x10, 0x00, 0x00, 0x00,
  0x28, 0x00, 0x00, 0x00, 0x00, 0x00, 0x06, 0x00, 0x08, 0x00, 0x04, 0x00,
  0x06, 0x00, 0x00, 0x00, 0x04, 0x00, 0x00, 0x00, 0x01, 0x00, 0x00, 0x00,
  0xeb, 0x03, 0x00, 0x00, 0x00, 0x00, 0x0a, 0x00, 0x10, 0x00, 0x0c, 0x00,
  0x08, 0x00, 0x04, 0x00, 0x0a, 0x00, 0x00, 0x00, 0x01, 0x00, 0x00, 0x00,
  0x02, 0x00, 0x00, 0x00, 0x04, 0x00, 0x00, 0x00, 0x06, 0x00, 0x00, 0x00,
  0x32, 0x2e, 0x31, 0x35, 0x2e, 0x30, 0x00, 0x00, 0xde, 0xe5, 0xff, 0xff,
  0x04, 0x00, 0x00, 0x00, 0x10, 0x00, 0x00, 0x00, 0x31, 0x2e, 0x31, 0x34,
  0x2e, 0x30, 0x00, 0x00, 0x00, 0x00, 0x00, 0x00, 0x00, 0x00, 0x00, 0x00,
  0xe8, 0xd6, 0xff, 0xff, 0xec, 0xd6, 0xff, 0xff, 0xf0, 0xd6, 0xff, 0xff,
  0xf4, 0xd6, 0xff, 0xff, 0xf8, 0xd6, 0xff, 0xff, 0xfc, 0xd6, 0xff, 0xff,
  0x12, 0xe6, 0xff, 0xff, 0x04, 0x00, 0x00, 0x00, 0xd8, 0x00, 0x00, 0x00,
  0x33, 0x00, 0xfe, 0x7d, 0x0b, 0xef, 0x5e, 0xf3, 0xc4, 0x1e, 0x17, 0xfd,
  0x7f, 0x36, 0x0b, 0x45, 0x14, 0xff, 0x0d, 0x24, 0xfc, 0x19, 0x33, 0xff,
  0x00, 0x30, 0x05, 0x91, 0xf8, 0x8c, 0x99, 0x0e, 0x81, 0x9c, 0x05, 0x8c,
  0xd3, 0x2c, 0xd7, 0xe7, 0x2f, 0xf9, 0xf4, 0x1b, 0xee, 0xbf, 0x26, 0x12,
  0xad, 0x4e, 0x01, 0xb4, 0x3b, 0x10, 0xde, 0x0b, 0x3d, 0xd3, 0x05, 0x5d,
  0xbd, 0x0f, 0x54, 0x9c, 0x27, 0xfa, 0x94, 0x2a, 0x3d, 0x96, 0x19, 0x3d,
  0x9e, 0x1a, 0x9f, 0x81, 0x17, 0xbf, 0xbb, 0x0f, 0x01, 0x0a, 0x02, 0x1c,
  0x1e, 0x0b, 0x27, 0x18, 0x0d, 0x25, 0xcf, 0x12, 0x16, 0xa2, 0x20, 0x4b,
  0xdc, 0x05, 0x4a, 0xa6, 0x1b, 0x12, 0x81, 0x2a, 0x36, 0xe1, 0x0b, 0x27,
  0xc8, 0x94, 0x1e, 0xdc, 0xe2, 0x3a, 0xe3, 0xb5, 0x1b, 0xdb, 0xa0, 0x44,
  0xd6, 0x10, 0x47, 0xae, 0xbf, 0x3c, 0xa6, 0xd9, 0x34, 0x89, 0xf9, 0x17,
  0x81, 0xeb, 0x27, 0x1b, 0x0c, 0xfd, 0x32, 0x04, 0xbc, 0x18, 0x07, 0xb2,
  0x22, 0x14, 0xb9, 0x43, 0x13, 0x81, 0x21, 0x07, 0x9c, 0xfd, 0x11, 0x9f,
  0x1a, 0x16, 0x8e, 0x02, 0x11, 0xae, 0x05, 0x12, 0xf5, 0x03, 0x17, 0x12,
  0x23, 0x0a, 0x20, 0xd1, 0x29, 0x1d, 0xb1, 0x3b, 0x36, 0xd2, 0x11, 0x21,
  0xae, 0xde, 0xf9, 0x81, 0x23, 0x14, 0xd9, 0x1c, 0x0a, 0x49, 0xfe, 0x0b,
  0x73, 0x08, 0xee, 0x4b, 0x01, 0x18, 0x36, 0x1c, 0xed, 0x7f, 0x29, 0xe9,
  0x62, 0x2f, 0x08, 0x04, 0x1f, 0xab, 0x27, 0x33, 0x98, 0x1b, 0xff, 0xa4,
  0xf6, 0xe6, 0xff, 0xff, 0x04, 0x00, 0x00, 0x00, 0x20, 0x00, 0x00, 0x00,
  0x9b, 0xff, 0xff, 0xff, 0xf6, 0xff, 0xff, 0xff, 0xed, 0xfe, 0xff, 0xff,
  0x95, 0xff, 0xff, 0xff, 0x62, 0x02, 0x00, 0x00, 0x0f, 0xff, 0xff, 0xff,
  0x90, 0xff, 0xff, 0xff, 0x59, 0xff, 0xff, 0xff, 0x22, 0xe7, 0xff, 0xff,
  0x04, 0x00, 0x00, 0x00, 0x80, 0x04, 0x00, 0x00, 0xa9, 0xb9, 0xa7, 0x8a,
  0x05, 0xac, 0x9a, 0xb6, 0xf3, 0x2a, 0xf6, 0xf9, 0xf7, 0xf6, 0xfc, 0xdb,
  0xfe, 0x2f, 0x25, 0x0f, 0xf8, 0xf9, 0x11, 0xf3, 0x88, 0xc2, 0xba, 0x90,
  0xfe, 0x86, 0x8d, 0x81, 0x0c, 0x39, 0x14, 0x0b, 0x0c, 0x03, 0x1c, 0xff,
  0x0a, 0x32, 0x29, 0x0e, 0x0b, 0x10, 0x0f, 0x08, 0xa3, 0xca, 0xec, 0xc2,
  0x03, 0x9b, 0xb2, 0x99, 0x04, 0x22, 0x23, 0x13, 0xfc, 0xf7, 0x1a, 0xf4,
  0x06, 0x34, 0x19, 0x13, 0x02, 0xf7, 0x1b, 0xf9, 0xe9, 0xd1, 0xc3, 0xd5,
  0xee, 0xe1, 0xbc, 0xe2, 0xbd, 0xc4, 0xc5, 0xbe, 0xe8, 0xb9, 0xb0, 0xa3,
  0xed, 0xe5, 0xff, 0xfd, 0x01, 0xdf, 0xde, 0xe2, 0x18, 0x16, 0x05, 0x08,
  0x95, 0x07, 0x0b, 0x25, 0x21, 0x2d, 0x03, 0x10, 0x81, 0x0b, 0x27, 0x28,
  0x1e, 0x10, 0x11, 0x0d, 0xb0, 0x13, 0x0e, 0x17, 0x00, 0x22, 0xfb, 0x08,
  0xca, 0xef, 0x05, 0xf4, 0x04, 0x24, 0x03, 0x11, 0xcd, 0xd6, 0x0e, 0xe8,
  0x01, 0x14, 0x02, 0x06, 0xe9, 0xeb, 0x09, 0xf8, 0xf5, 0xf8, 0x00, 0xf6,
  0x09, 0x1c, 0xe2, 0x16, 0x4d, 0x4c, 0x74, 0x46, 0x0c, 0x28, 0x31, 0x37,
  0x33, 0x09, 0x57, 0x54, 0xd4, 0x29, 0x34, 0x2c, 0xf8, 0x3f, 0x14, 0xf3,
  0x88, 0x15, 0x04, 0xf6, 0xfa, 0x68, 0x4c, 0xed, 0x8f, 0x37, 0x18, 0x01,
  0x0b, 0x2f, 0x42, 0xfb, 0xb2, 0x0b, 0x29, 0xf9, 0xca, 0x1c, 0x09, 0xe6,
  0xe0, 0x11, 0xe2, 0xc8, 0x08, 0x7f, 0xfd, 0x05, 0xe9, 0x4d, 0xec, 0x03,
  0x2a, 0x6c, 0x08, 0xfd, 0xe2, 0x0d, 0x10, 0xfa, 0x1d, 0x1b, 0xf9, 0xfd,
  0xe7, 0x28, 0x02, 0x24, 0x29, 0xf9, 0x00, 0x02, 0x11, 0x23, 0x04, 0x35,
  0x12, 0x03, 0xf1, 0x09, 0x1e, 0x13, 0x01, 0x25, 0x1a, 0x2a, 0x00, 0x0e,
  0xc8, 0x08, 0x1e, 0x0e, 0x18, 0x22, 0x13, 0x0f, 0xf1, 0x15, 0x09, 0x1e,
  0xfa, 0xd5, 0x01, 0xfa, 0x03, 0xfb, 0xff, 0xfd, 0xdb, 0xc8, 0xcf, 0xdf,
  0xf1, 0xdf, 0xfa, 0xe5, 0x83, 0x96, 0xd0, 0xad, 0x03, 0x9c, 0xe5, 0x89,
  0x81, 0xc4, 0xae, 0x84, 0x05, 0x9c, 0xac, 0x87, 0x11, 0x13, 0xf7, 0x06,
  0xfc, 0x1c, 0x07, 0x13, 0x0f, 0x03, 0xd6, 0xd4, 0xe4, 0x27, 0xee, 0x12,
  0x14, 0x12, 0xf2, 0xe0, 0xd5, 0x22, 0xf7, 0x0a, 0x13, 0x02, 0xc6, 0xf8,
  0x11, 0x18, 0xf3, 0x23, 0x29, 0x10, 0x81, 0xb4, 0xfa, 0x3b, 0xd1, 0x1f,
  0x24, 0x07, 0xa0, 0xc4, 0xe3, 0x3e, 0xd9, 0x26, 0x09, 0xe9, 0x0d, 0xff,
  0x27, 0x0d, 0xf4, 0xfb, 0x1a, 0xdd, 0xe8, 0x03, 0x2c, 0x12, 0x09, 0x14,
  0x11, 0xcc, 0xbf, 0xe7, 0x01, 0x18, 0xe5, 0x0e, 0xfe, 0x1d, 0x09, 0x0e,
  0x81, 0xfa, 0x14, 0xfe, 0x0a, 0x24, 0x0c, 0x0e, 0xa8, 0xef, 0x0a, 0xf4,
  0x00, 0x16, 0x1f, 0x17, 0xa3, 0xe9, 0x10, 0xf5, 0x00, 0x2e, 0x24, 0x1a,
  0x01, 0xc0, 0x19, 0xe9, 0x09, 0x34, 0x40, 0x42, 0xe6, 0xb6, 0x33, 0xec,
  0xf3, 0x21, 0x2e, 0x2a, 0xd4, 0xbc, 0x30, 0xdb, 0xd4, 0x00, 0x17, 0x04,
  0x09, 0xa8, 0xf5, 0xda, 0xe9, 0x0c, 0x48, 0x25, 0x14, 0xb7, 0x1e, 0xe9,
  0xf9, 0x1f, 0x3f, 0x24, 0xef, 0xdc, 0x13, 0xee, 0x29, 0x32, 0xf0, 0x01,
  0xbe, 0x54, 0x1a, 0x2c, 0x28, 0x2a, 0xf5, 0xfb, 0x3b, 0x26, 0x17, 0x15,
  0x1f, 0x1d, 0x06, 0x05, 0xcc, 0xdb, 0x02, 0x0e, 0x1e, 0x30, 0xe3, 0xf5,
  0xf8, 0x51, 0xf0, 0x32, 0x31, 0x1d, 0xdb, 0xca, 0xe3, 0x7f, 0xf1, 0x4a,
  0x29, 0x25, 0xdc, 0xee, 0x8c, 0x3a, 0x14, 0x1f, 0x12, 0x1e, 0xcd, 0xe1,
  0xf3, 0x37, 0xee, 0x2a, 0xfd, 0x01, 0x87, 0xbe, 0xab, 0x6d, 0xb9, 0x2e,
  0xf8, 0x13, 0xee, 0x07, 0xe2, 0x18, 0x17, 0x16, 0xfc, 0xf0, 0x00, 0x04,
  0xe7, 0x20, 0xff, 0x15, 0xf3, 0x05, 0xf4, 0xfc, 0x10, 0xfd, 0xee, 0xf4,
  0x19, 0x35, 0x16, 0x31, 0xd0, 0xef, 0x31, 0x21, 0x06, 0x0f, 0xfc, 0x0d,
  0xd9, 0x06, 0x0c, 0x09, 0xfa, 0x2e, 0x09, 0x08, 0xac, 0x48, 0x1e, 0x39,
  0x1e, 0x5d, 0x4f, 0x22, 0xb1, 0x27, 0x31, 0x28, 0xf9, 0xf7, 0xfb, 0xf7,
  0xfa, 0x01, 0xfc, 0xfc, 0xfc, 0x63, 0xcf, 0xd0, 0x81, 0x36, 0x0b, 0x19,
  0xfe, 0x62, 0x1e, 0xe5, 0x8c, 0x1a, 0x07, 0x0c, 0x00, 0x49, 0xff, 0x0a,
  0xb7, 0x14, 0x04, 0x04, 0xe0, 0x2c, 0xf9, 0xd2, 0xd2, 0x2f, 0xd2, 0x00,
  0xf5, 0xfc, 0x2c, 0x09, 0xbe, 0x06, 0x11, 0xe7, 0x33, 0x4b, 0xf2, 0x31,
  0xf7, 0xc6, 0x34, 0xfd, 0x4e, 0x3c, 0xbf, 0x37, 0xf9, 0x09, 0x0e, 0x10,
  0x06, 0x05, 0x96, 0x0c, 0xf6, 0xf2, 0x0b, 0x03, 0x14, 0x1d, 0x40, 0x2e,
  0xa6, 0xdc, 0x45, 0x17, 0xf3, 0xdc, 0x7f, 0x2c, 0xf9, 0xf0, 0x39, 0x27,
  0x14, 0xc9, 0x34, 0x10, 0xc9, 0x01, 0x22, 0x20, 0x0c, 0x3f, 0x09, 0x0f,
  0xaa, 0xe1, 0x24, 0xe0, 0xfe, 0xe8, 0x2e, 0x19, 0x05, 0xea, 0x1c, 0x06,
  0xfe, 0xe4, 0xcf, 0xcd, 0xe2, 0x28, 0xc2, 0x25, 0x15, 0x66, 0x43, 0x59,
  0x04, 0xb9, 0x5a, 0xdf, 0x00, 0x63, 0x61, 0x6e, 0xce, 0xc2, 0x39, 0x13,
  0x08, 0xfd, 0xf4, 0x07, 0xc6, 0x1e, 0xf1, 0xf9, 0xfc, 0x2d, 0x7b, 0x4a,
  0xf0, 0xb6, 0x52, 0xe0, 0x1a, 0x50, 0x77, 0x6d, 0x26, 0xd2, 0x7f, 0x04,
  0xfa, 0x10, 0x21, 0x0f, 0xd5, 0xed, 0xf7, 0xf2, 0x09, 0x25, 0x23, 0x1d,
  0x04, 0x18, 0x1b, 0x0d, 0xec, 0x33, 0x1b, 0x18, 0x0a, 0xe0, 0x1a, 0xf0,
  0xa0, 0xc8, 0xc6, 0xad, 0x17, 0x88, 0x8f, 0x85, 0x0d, 0x0f, 0x15, 0x08,
  0x26, 0x00, 0x0a, 0x03, 0xfc, 0x20, 0x40, 0x2a, 0x3c, 0xf4, 0x29, 0x08,
  0x89, 0xab, 0xed, 0xc5, 0x1f, 0x82, 0xbe, 0x81, 0x04, 0xec, 0x17, 0x07,
  0x37, 0x04, 0x06, 0x17, 0xef, 0x05, 0x2e, 0x07, 0x36, 0xfa, 0x1b, 0xff,
  0x93, 0xe9, 0xcc, 0xd4, 0x3d, 0xad, 0xb0, 0xa6, 0x00, 0x0f, 0x1d, 0x13,
  0x0a, 0xf4, 0x13, 0xfe, 0x01, 0x0e, 0x1a, 0x1d, 0xf9, 0xed, 0x13, 0xf8,
  0x08, 0xfe, 0x16, 0x11, 0x02, 0xf9, 0x0a, 0x00, 0xfd, 0xff, 0x07, 0x0c,
  0x04, 0xd3, 0x0d, 0xec, 0x01, 0x21, 0x2b, 0x21, 0x0b, 0xdb, 0x1a, 0x02,
  0x0e, 0x0d, 0x1b, 0x28, 0x0e, 0xe7, 0x10, 0x09, 0xbe, 0xc1, 0x11, 0xf6,
  0x0c, 0xb3, 0xe8, 0xc2, 0x94, 0xa8, 0x02, 0xe8, 0x0e, 0x81, 0xe7, 0xa3,
  0x92, 0x8e, 0xef, 0xd7, 0x18, 0xad, 0xe1, 0xa7, 0xcb, 0xb1, 0xa2, 0xa7,
  0xf8, 0xe5, 0xa7, 0xdc, 0xb0, 0xb0, 0xd0, 0x81, 0x06, 0xbd, 0x90, 0xb6,
  0xf4, 0xbd, 0xad, 0xc2, 0x01, 0x07, 0xa8, 0x0a, 0xfd, 0x06, 0xc0, 0xed,
  0xda, 0xed, 0xe4, 0xf1, 0x01, 0x07, 0x94, 0xed, 0xc9, 0x01, 0xbd, 0xf3,
  0xf2, 0xeb, 0xb1, 0xf0, 0xc6, 0xf6, 0xcb, 0xef, 0x1f, 0x1b, 0x02, 0x12,
  0xc2, 0x12, 0x0b, 0x16, 0x32, 0x2b, 0x06, 0x24, 0xa4, 0x10, 0x17, 0x1a,
  0x1d, 0x21, 0x0c, 0x13, 0xc1, 0xf2, 0x15, 0xfd, 0x0c, 0x23, 0x06, 0x0b,
  0x10, 0x17, 0x0d, 0x08, 0x13, 0x15, 0xdb, 0xfd, 0x08, 0x22, 0xf9, 0x18,
  0xca, 0xc9, 0xbe, 0x9f, 0xf2, 0xdd, 0xc7, 0xc4, 0x17, 0x20, 0x28, 0x12,
  0x19, 0x1a, 0x14, 0x12, 0x12, 0x0e, 0x09, 0xfb, 0x1c, 0x1e, 0xf8, 0x17,
  0xaf, 0x85, 0xa9, 0x81, 0xf6, 0xbf, 0x95, 0xbe, 0x00, 0x0c, 0x17, 0x02,
  0x0b, 0x0e, 0x0b, 0x08, 0x02, 0xf9, 0x05, 0xea, 0x35, 0x10, 0xf4, 0x09,
  0xb6, 0xb0, 0xc7, 0xbd, 0x0d, 0xd2, 0x96, 0xc6, 0xdb, 0x1c, 0x06, 0x03,
  0xed, 0xc5, 0x16, 0xbb, 0x23, 0x63, 0xd3, 0x0e, 0xe8, 0x0d, 0x20, 0x1b,
  0x5a, 0xf8, 0xc3, 0xd9, 0x8e, 0x7f, 0xf5, 0x4d, 0xef, 0x20, 0x13, 0xfd,
  0xe9, 0xf6, 0xf1, 0xfa, 0x44, 0x49, 0x2c, 0x2b, 0x22, 0x23, 0x53, 0x68,
  0x3f, 0x05, 0xaf, 0xdd, 0xe5, 0x7f, 0x16, 0x67, 0x09, 0x38, 0x04, 0x02,
  0xed, 0x0e, 0xfa, 0x0c, 0x1a, 0x29, 0xfa, 0x0d, 0xd9, 0x2c, 0x13, 0x43,
  0x20, 0xe1, 0xf9, 0xed, 0x1b, 0x5a, 0xe8, 0x12, 0xe4, 0x01, 0x00, 0x10,
  0xfb, 0xe1, 0x0a, 0xf6, 0x12, 0x0e, 0x09, 0x0d, 0x16, 0x31, 0x0e, 0x19,
  0xe3, 0xf6, 0xfa, 0xff, 0x23, 0x2e, 0xed, 0xe6, 0x05, 0xe1, 0x06, 0x03,
  0x2c, 0x24, 0xf4, 0xfb, 0x47, 0x29, 0x0d, 0x12, 0x42, 0x7f, 0x09, 0x5d,
  0x1a, 0xec, 0x02, 0x00, 0x43, 0x29, 0xff, 0x19, 0xed, 0xf0, 0xff, 0xea,
  0x09, 0x0f, 0xf5, 0x01, 0x27, 0x1b, 0x2f, 0xec, 0xee, 0x6b, 0x2c, 0x59,
  0xfd, 0xf1, 0x1a, 0xea, 0xe9, 0x34, 0xe7, 0x29, 0xae, 0xeb, 0xff, 0xff,
  0x04, 0x00, 0x00, 0x00, 0x40, 0x00, 0x00, 0x00, 0x3c, 0x02, 0x00, 0x00,
  0x4e, 0x01, 0x00, 0x00, 0x21, 0x00, 0x00, 0x00, 0xf5, 0xff, 0xff, 0xff,
  0x6c, 0xff, 0xff, 0xff, 0x62, 0xff, 0xff, 0xff, 0xb8, 0xff, 0xff, 0xff,
  0x42, 0x00, 0x00, 0x00, 0x95, 0x00, 0x00, 0x00, 0xfa, 0xff, 0xff, 0xff,
  0xd9, 0x04, 0x00, 0x00, 0x39, 0x00, 0x00, 0x00, 0x82, 0x00, 0x00, 0x00,
  0x5b, 0xfe, 0xff, 0xff, 0x63, 0xff, 0xff, 0xff, 0xea, 0xfc, 0xff, 0xff,
  0xfa, 0xeb, 0xff, 0xff, 0x04, 0x00, 0x00, 0x00, 0x00, 0x12, 0x00, 0x00,
  0xf1, 0xf5, 0xce, 0xd2, 0xee, 0xc3, 0xd7, 0xdd, 0xd2, 0xbd, 0xff, 0xf0,
  0x07, 0xac, 0xe1, 0xf3, 0xf4, 0xea, 0xd2, 0xde, 0xdf, 0xd1, 0xd6, 0xec,
  0xd7, 0xdb, 0xee, 0x22, 0x13, 0xab, 0xd1, 0xd1, 0xde, 0xf9, 0xcc, 0xb2,
  0xf8, 0xb4, 0xdf, 0xdd, 0xf0, 0xeb, 0xf8, 0x02, 0x06, 0xbc, 0xf8, 0xfa,
  0x11, 0x20, 0x02, 0x3e, 0x01, 0x13, 0xf5, 0xf4, 0x09, 0xff, 0xf1, 0x49,
  0x31, 0xf7, 0xfa, 0xf5, 0xe5, 0x13, 0xfd, 0x60, 0x04, 0x10, 0xf1, 0xfd,
  0x18, 0x10, 0xc9, 0x7f, 0x29, 0xa0, 0x04, 0xf8, 0xfa, 0x10, 0x03, 0x18,
  0xfc, 0xff, 0xfe, 0x12, 0x11, 0x0c, 0xfa, 0x31, 0x2a, 0xfb, 0x02, 0xfd,
  0x09, 0x30, 0x14, 0xf9, 0xde, 0x03, 0xf0, 0x08, 0xfc, 0xff, 0xf8, 0x1a,
  0x2c, 0xf8, 0xf9, 0xf6, 0xf0, 0x25, 0x06, 0x22, 0xe6, 0x04, 0xf2, 0x04,
  0x04, 0x0d, 0xd5, 0x22, 0x1c, 0xcd, 0x02, 0xf4, 0xfd, 0x17, 0x0a, 0x08,
  0xed, 0x09, 0xff, 0x07, 0x06, 0x04, 0xf0, 0x09, 0x04, 0xf6, 0xff, 0x06,
  0x0c, 0x14, 0xde, 0x8c, 0x05, 0xe2, 0xc3, 0xfd, 0xd3, 0x92, 0xef, 0xf6,
  0xdd, 0x8d, 0xe4, 0xca, 0xfc, 0xea, 0xfe, 0xff, 0x1b, 0x08, 0x10, 0x02,
  0x22, 0x05, 0x07, 0x14, 0xfc, 0x0b, 0x0c, 0x12, 0xec, 0xff, 0x81, 0xee,
  0xfa, 0x08, 0xd3, 0x85, 0xf1, 0x05, 0x1b, 0xf7, 0xfe, 0x10, 0xa3, 0xa6,
  0x26, 0xe4, 0xf9, 0xcc, 0xeb, 0xf2, 0xbb, 0xf0, 0xd8, 0xb6, 0x02, 0xe2,
  0xe5, 0xd8, 0xf1, 0xcc, 0x28, 0x09, 0x16, 0x06, 0x13, 0xfa, 0x09, 0x11,
  0x0c, 0x0d, 0x1a, 0x07, 0xed, 0x30, 0x0a, 0x09, 0x0d, 0xb6, 0xc6, 0xea,
  0xfc, 0xe6, 0xff, 0xa5, 0xe1, 0x01, 0x20, 0x1c, 0xd1, 0xfd, 0xcb, 0xbf,
  0x19, 0xdf, 0xfd, 0xbe, 0x0e, 0xed, 0xdf, 0x02, 0xcb, 0xb4, 0x26, 0x0f,
  0xd6, 0x1e, 0xe6, 0xd0, 0x2e, 0xe2, 0x10, 0xfb, 0x0f, 0x0a, 0x13, 0x0a,
  0x10, 0x0b, 0x33, 0x15, 0xf5, 0x27, 0x0d, 0x09, 0x3e, 0xa6, 0xa9, 0xfc,
  0xfa, 0xed, 0xf3, 0xb1, 0xe4, 0xfa, 0x31, 0x2f, 0xa6, 0xfc, 0xbb, 0xc1,
  0xee, 0xf5, 0xf9, 0xee, 0x0e, 0x0c, 0xfa, 0xf7, 0x0f, 0x12, 0x1a, 0x02,
  0xeb, 0xfb, 0x0c, 0x02, 0xeb, 0x0b, 0xfc, 0xf2, 0x0f, 0xf1, 0x12, 0x0c,
  0x03, 0xfa, 0xf9, 0x9b, 0xed, 0x02, 0x08, 0x04, 0xd0, 0x11, 0xf5, 0xa4,
  0xdc, 0xfe, 0xed, 0xf5, 0x08, 0xfe, 0x05, 0xf9, 0x0d, 0xd6, 0xe4, 0xfc,
  0x06, 0xd5, 0xf2, 0xf4, 0xf4, 0x01, 0xe6, 0xff, 0xeb, 0xcf, 0xd2, 0x10,
  0xd9, 0xd0, 0xfb, 0xed, 0xe3, 0x23, 0x07, 0x01, 0xfc, 0xf5, 0x14, 0x10,
  0x17, 0x0c, 0xe0, 0x10, 0x4a, 0x10, 0x11, 0x0b, 0xd6, 0x11, 0x06, 0x08,
  0xf4, 0xff, 0x0f, 0x04, 0x0b, 0x06, 0xf4, 0x18, 0x29, 0xf3, 0x04, 0xfb,
  0xfc, 0x89, 0xef, 0x02, 0xf6, 0xa2, 0xeb, 0xd1, 0x81, 0x9b, 0x1a, 0x14,
  0x84, 0xd1, 0xd8, 0xbf, 0x02, 0xd9, 0xff, 0x03, 0x0a, 0xe5, 0x0c, 0x04,
  0xc1, 0xc6, 0x06, 0x08, 0x99, 0xd3, 0x0e, 0xea, 0xf7, 0x08, 0x0d, 0x06,
  0xdd, 0x05, 0x09, 0x11, 0xfe, 0xf8, 0xca, 0x15, 0x01, 0xe6, 0xf2, 0x08,
  0xe3, 0x15, 0x11, 0xf3, 0xc8, 0x17, 0xe5, 0xfc, 0x16, 0x18, 0xed, 0x4c,
  0x0c, 0xd1, 0xe1, 0xda, 0xa5, 0x29, 0x02, 0x0b, 0x09, 0x14, 0x17, 0xfa,
  0x0d, 0x25, 0xd7, 0x2c, 0xf8, 0xb4, 0x01, 0x12, 0xd8, 0x26, 0x2b, 0x22,
  0x28, 0xe6, 0x12, 0xf9, 0x28, 0xe7, 0x81, 0xb6, 0x10, 0xde, 0xf5, 0x10,
  0xfa, 0x12, 0x16, 0xe4, 0x26, 0x14, 0x1a, 0xf5, 0x16, 0x0a, 0x0a, 0x06,
  0xf2, 0xec, 0x0a, 0xf6, 0xe4, 0x41, 0x10, 0xfa, 0x26, 0x2b, 0xf0, 0x12,
  0x12, 0x26, 0xe8, 0x0e, 0xe2, 0xd4, 0xff, 0xe3, 0xfe, 0xfd, 0x1a, 0xe1,
  0x0f, 0x0c, 0x24, 0x2d, 0xf3, 0xeb, 0x90, 0xc4, 0xfb, 0xe2, 0xee, 0x00,
  0xfd, 0x2b, 0x08, 0xf2, 0x27, 0x0e, 0x24, 0x17, 0x39, 0x1d, 0xf3, 0xe7,
  0x1c, 0x09, 0x11, 0x22, 0x37, 0x38, 0x06, 0xcf, 0x0c, 0x2b, 0x10, 0x1b,
  0x32, 0x2e, 0xe3, 0xe5, 0x0b, 0xfa, 0x26, 0x2f, 0x3b, 0x08, 0x27, 0xd0,
  0x11, 0x1e, 0x06, 0x22, 0x07, 0x06, 0xa0, 0xbf, 0x03, 0xdf, 0x0a, 0x07,
  0xf3, 0xf8, 0x24, 0xf7, 0xf0, 0x03, 0x12, 0x1d, 0x11, 0x0d, 0x03, 0xfb,
  0xf8, 0xf9, 0x0a, 0x13, 0x08, 0xbb, 0x0b, 0x0f, 0xfa, 0xf1, 0xfc, 0xd5,
  0xe8, 0x02, 0x15, 0xfb, 0xe3, 0x04, 0xcc, 0xac, 0xf8, 0x26, 0xf2, 0xef,
  0x10, 0xb7, 0x08, 0xfb, 0xec, 0xc6, 0x22, 0xf4, 0x01, 0x0e, 0x03, 0x00,
  0xee, 0xd2, 0x0b, 0xfa, 0xed, 0xff, 0xff, 0xff, 0x04, 0x04, 0x01, 0xeb,
  0xb3, 0xfe, 0x03, 0x02, 0x28, 0xf9, 0xb2, 0xd9, 0x1c, 0xf1, 0xf4, 0xc0,
  0xe3, 0xfc, 0x24, 0xea, 0x02, 0x02, 0xb9, 0xcc, 0x02, 0xf5, 0xf2, 0x40,
  0x10, 0x05, 0xed, 0xe9, 0xf2, 0x0f, 0x0f, 0x1d, 0x00, 0xf2, 0xf8, 0xee,
  0x18, 0xdb, 0xee, 0x22, 0xff, 0xfe, 0xf4, 0xdf, 0xf5, 0xff, 0xf7, 0x16,
  0xfb, 0xfa, 0xa9, 0xca, 0x0e, 0x0d, 0xee, 0xd4, 0xd1, 0x28, 0x81, 0xe7,
  0xfd, 0x24, 0x0b, 0x1a, 0x00, 0xfb, 0xb0, 0xcb, 0xeb, 0x06, 0xfd, 0x1e,
  0x1f, 0x0a, 0x06, 0xfc, 0x07, 0x0a, 0xff, 0x2b, 0xfc, 0xf1, 0x13, 0xfd,
  0x13, 0x0b, 0x05, 0xfd, 0xf8, 0xf9, 0x06, 0x06, 0x06, 0xfe, 0xee, 0xee,
  0x09, 0x06, 0x08, 0x04, 0x01, 0x02, 0x12, 0x01, 0xf5, 0xf2, 0x0c, 0x0c,
  0x0b, 0xfb, 0xfd, 0xd9, 0xe3, 0x0b, 0x0c, 0x0b, 0xd0, 0xa8, 0xd6, 0x03,
  0xf5, 0xcb, 0xfa, 0xdb, 0x01, 0xf6, 0x13, 0xcc, 0xdf, 0x1e, 0xf7, 0xeb,
  0xdb, 0xff, 0x07, 0xfc, 0xfb, 0xf9, 0x08, 0x12, 0xf6, 0x01, 0x07, 0xe0,
  0xad, 0x0e, 0x0f, 0x0a, 0x03, 0xe4, 0x0c, 0xf4, 0x0d, 0x03, 0x14, 0x18,
  0x0e, 0x04, 0x04, 0x81, 0x8d, 0x0c, 0x07, 0x0a, 0xdf, 0xf3, 0xbc, 0x00,
  0xf7, 0xb5, 0xf4, 0xd2, 0xee, 0xee, 0x14, 0xc9, 0xc3, 0x2b, 0xd2, 0xe1,
  0xe4, 0xee, 0x03, 0x00, 0x05, 0xb3, 0x13, 0x03, 0xeb, 0xd2, 0x2e, 0xd8,
  0xdc, 0x0b, 0x04, 0x00, 0xf9, 0xe2, 0x05, 0x03, 0x19, 0xa8, 0x19, 0x02,
  0xea, 0xc4, 0x0a, 0xf0, 0xbc, 0x01, 0x09, 0x0a, 0xfa, 0xbf, 0xb7, 0x18,
  0xf1, 0xe6, 0xfc, 0xd9, 0xe4, 0xec, 0x18, 0xef, 0x95, 0x22, 0xb6, 0xd2,
  0x0d, 0x00, 0xd5, 0x04, 0xb7, 0xf1, 0x9d, 0xd4, 0xcc, 0xb8, 0xba, 0xea,
  0xfa, 0x9b, 0x8d, 0xc2, 0x0e, 0x21, 0xed, 0x18, 0xbe, 0x13, 0xac, 0xf4,
  0x11, 0x0c, 0x8c, 0x24, 0x13, 0xa6, 0xd2, 0xd9, 0xd7, 0x10, 0xf4, 0xdb,
  0xf2, 0x0b, 0xed, 0x01, 0xfd, 0x02, 0xbf, 0x26, 0xfe, 0xbb, 0x04, 0xf1,
  0x27, 0x1b, 0x04, 0xe0, 0xcd, 0x08, 0xd7, 0x0b, 0xfb, 0xf5, 0x81, 0x31,
  0x00, 0xac, 0xf9, 0xf0, 0xfb, 0xfe, 0xfb, 0x57, 0xf3, 0x18, 0xf8, 0xf9,
  0x0b, 0x0e, 0xbe, 0x2e, 0x06, 0xbc, 0xf2, 0x07, 0xb5, 0xf4, 0x03, 0xf8,
  0x00, 0x09, 0xf3, 0x11, 0x04, 0x0e, 0xf1, 0xe2, 0x18, 0xf5, 0x15, 0x04,
  0x18, 0xf7, 0x0e, 0x0c, 0xe7, 0x1c, 0xef, 0x0d, 0x0d, 0x17, 0xd9, 0x03,
  0x03, 0x00, 0x08, 0x06, 0xcd, 0x30, 0xff, 0x40, 0xf1, 0x02, 0x0f, 0x09,
  0xf8, 0xfc, 0xb7, 0x0c, 0xef, 0xd2, 0x05, 0x0e, 0xd0, 0xfc, 0x04, 0x16,
  0x05, 0xe4, 0x0a, 0x09, 0xe2, 0xf6, 0x06, 0x0f, 0xcc, 0x00, 0x14, 0x02,
  0xf7, 0xf6, 0x0f, 0x20, 0x47, 0xed, 0x25, 0x0c, 0x0a, 0xfe, 0xf6, 0x10,
  0xd2, 0xfe, 0x33, 0x1a, 0xc1, 0x4e, 0xf4, 0xdc, 0x4c, 0x04, 0x1b, 0x01,
  0x3f, 0xdd, 0x96, 0xe3, 0x18, 0xb2, 0xfb, 0x20, 0x04, 0x08, 0x22, 0xbf,
  0x31, 0x05, 0x17, 0x08, 0xfe, 0x05, 0xf0, 0x11, 0x22, 0xb9, 0xec, 0xfb,
  0xf8, 0xe9, 0x34, 0x14, 0x4e, 0xe8, 0x50, 0x32, 0x19, 0xf5, 0xe8, 0x81,
  0xf6, 0x2c, 0xfe, 0x1e, 0x17, 0x25, 0x29, 0xea, 0x56, 0x04, 0xf6, 0xef,
  0xcc, 0xe7, 0x9c, 0xb1, 0xba, 0x23, 0xe8, 0xda, 0x36, 0xd9, 0x36, 0xbe,
  0x17, 0x39, 0x21, 0x29, 0xfe, 0x0f, 0xdc, 0xd9, 0xb1, 0x01, 0xf1, 0xfa,
  0x26, 0xf2, 0x19, 0xed, 0x44, 0x2c, 0x16, 0x14, 0x26, 0x41, 0xec, 0xd5,
  0x0c, 0x1f, 0x01, 0x0b, 0x6c, 0x2e, 0x08, 0xc3, 0x43, 0x41, 0x01, 0x18,
  0x57, 0x2a, 0xcf, 0xaa, 0xe9, 0x22, 0x38, 0x19, 0x28, 0xd2, 0x21, 0xd2,
  0x3d, 0x15, 0x20, 0x17, 0x15, 0xfa, 0xe0, 0xd0, 0xa2, 0x0c, 0xfa, 0x2b,
  0x18, 0x97, 0xf1, 0xdc, 0xbc, 0xd5, 0x9a, 0xe1, 0xa9, 0xb5, 0x06, 0xfa,
  0xb7, 0xdb, 0xc3, 0xbb, 0x04, 0xd0, 0x16, 0xf2, 0xe2, 0xf6, 0x0d, 0x0f,
  0xcd, 0xcd, 0x08, 0x09, 0xde, 0x81, 0x1f, 0xf4, 0xf4, 0xfc, 0x14, 0xfb,
  0xe6, 0x11, 0x0b, 0x1c, 0x2b, 0x10, 0x14, 0xe9, 0x0a, 0x18, 0x03, 0x05,
  0xfe, 0x15, 0xe3, 0xcb, 0x11, 0x15, 0x00, 0x12, 0x12, 0x05, 0x01, 0xf3,
  0x25, 0xe2, 0xfd, 0x19, 0x2c, 0x04, 0xd7, 0xd1, 0xd3, 0xd6, 0xb3, 0xec,
  0xe9, 0xda, 0x14, 0x0e, 0x0e, 0x0a, 0xd0, 0x9c, 0x02, 0xec, 0x0f, 0xea,
  0x1b, 0xdb, 0x20, 0x0a, 0xf4, 0xf7, 0x28, 0xb6, 0xe7, 0x23, 0x16, 0x05,
  0x0d, 0xef, 0x05, 0x34, 0xd9, 0x1b, 0xfc, 0xeb, 0xfb, 0x15, 0x0e, 0x23,
  0xdc, 0xf1, 0xe9, 0xd9, 0x2d, 0xf6, 0xbf, 0x10, 0xce, 0xf4, 0xb6, 0xc4,
  0x00, 0x03, 0x15, 0xdf, 0xc7, 0x05, 0xb0, 0x9e, 0x18, 0xe7, 0xf7, 0xd9,
  0x20, 0xe9, 0x05, 0x04, 0xf6, 0xe5, 0x5d, 0xd3, 0xca, 0xe7, 0x15, 0x16,
  0xfc, 0xfc, 0x04, 0x1b, 0xe4, 0x0b, 0xe0, 0xf0, 0xf2, 0xee, 0xe9, 0x20,
  0x1e, 0x81, 0xd7, 0xda, 0xd2, 0x3a, 0x01, 0x39, 0x03, 0x0c, 0xfd, 0xf5,
  0x0f, 0x12, 0xdf, 0x46, 0x1d, 0xb3, 0xfd, 0xf2, 0xce, 0x26, 0xf0, 0x18,
  0x1c, 0xe0, 0xfb, 0xf5, 0x0d, 0x03, 0xda, 0xf8, 0x30, 0xfa, 0xe1, 0xfd,
  0x02, 0x33, 0x28, 0xed, 0xf9, 0x09, 0x07, 0x0a, 0x0c, 0xfa, 0xdd, 0x14,
  0x19, 0xa9, 0x03, 0xf3, 0xc9, 0x3c, 0xfd, 0xbb, 0xf7, 0x14, 0xe8, 0xf3,
  0x18, 0x0e, 0xd9, 0x19, 0x14, 0xb3, 0xeb, 0xf0, 0x17, 0x09, 0xff, 0xd0,
  0x02, 0x0f, 0x10, 0x14, 0x00, 0xe7, 0xd3, 0xea, 0xff, 0xea, 0xf1, 0xff,
  0x0f, 0x39, 0x15, 0xc8, 0xf2, 0x04, 0x02, 0x1b, 0x1f, 0x04, 0x12, 0x11,
  0x05, 0x06, 0x0d, 0xfa, 0x16, 0x34, 0x16, 0xe2, 0xf7, 0x06, 0x03, 0x19,
  0x29, 0x22, 0xf8, 0x01, 0x1d, 0xee, 0x1f, 0x16, 0x21, 0x14, 0x10, 0xf8,
  0xf1, 0x07, 0x09, 0x24, 0x01, 0xf8, 0xdd, 0xcd, 0x05, 0xf2, 0xf6, 0x00,
  0xbe, 0xad, 0xf4, 0xea, 0xd9, 0xf9, 0x00, 0xdc, 0xfa, 0x04, 0x1a, 0x14,
  0xaa, 0x13, 0x14, 0xf0, 0xed, 0xc0, 0xc9, 0xd9, 0xa5, 0xd8, 0xce, 0xcc,
  0x93, 0x81, 0xd5, 0xe2, 0x07, 0xad, 0xe0, 0xf0, 0xc8, 0xd0, 0xbc, 0xb9,
  0xb7, 0xe0, 0xbd, 0xc1, 0xb4, 0xdf, 0xd8, 0xbb, 0xe0, 0xcc, 0xda, 0xd0,
  0x29, 0xf9, 0xf9, 0xd1, 0x20, 0xfb, 0x02, 0x0d, 0x03, 0x0c, 0xeb, 0xda,
  0x0e, 0x09, 0x05, 0x06, 0x9c, 0x31, 0x10, 0x2b, 0x01, 0x1f, 0x1f, 0x22,
  0x04, 0x00, 0xe3, 0xa9, 0x34, 0xf2, 0x27, 0x2b, 0xcf, 0xce, 0xa8, 0xd8,
  0xa1, 0xf3, 0xa2, 0x9a, 0xbf, 0xd8, 0xc6, 0xd2, 0xb2, 0xec, 0xb3, 0x8c,
  0x2e, 0xfc, 0x10, 0x1e, 0xf8, 0x09, 0x05, 0xfd, 0xfb, 0x16, 0x09, 0x01,
  0xdd, 0x02, 0x18, 0xff, 0xca, 0x07, 0x01, 0x20, 0xfa, 0x18, 0xda, 0xef,
  0x07, 0x14, 0x0d, 0x02, 0xf5, 0x0b, 0xf4, 0xdc, 0xcd, 0x16, 0xee, 0xb8,
  0xdd, 0xef, 0xa0, 0xe3, 0x05, 0xfb, 0xca, 0xd8, 0x20, 0xbd, 0xea, 0xda,
  0xfc, 0xb0, 0xf5, 0xf5, 0xeb, 0xf7, 0xe3, 0xf4, 0xce, 0xbd, 0xf6, 0x02,
  0xec, 0x9b, 0xf9, 0xf4, 0x08, 0xe9, 0x0e, 0xfa, 0x07, 0xfc, 0x12, 0x09,
  0x0e, 0x0b, 0x0f, 0x05, 0xf5, 0x26, 0x12, 0x0b, 0x03, 0x01, 0x03, 0xda,
  0xf8, 0x01, 0x09, 0x02, 0x0f, 0x00, 0xf6, 0xf2, 0xfc, 0x01, 0xf8, 0xfb,
  0x12, 0xd0, 0xeb, 0xf7, 0xf3, 0xd5, 0xee, 0xfb, 0xbe, 0xc2, 0x04, 0xf1,
  0xc1, 0xb4, 0x01, 0xcd, 0x00, 0xfc, 0x09, 0xd2, 0x1e, 0xec, 0x21, 0x0a,
  0x09, 0xf9, 0xce, 0xcb, 0xd1, 0x1c, 0x12, 0x0e, 0x00, 0xf4, 0x12, 0xf4,
  0x0a, 0xfd, 0x0d, 0x0e, 0xff, 0xf6, 0xe7, 0xf0, 0x01, 0x0f, 0x04, 0x02,
  0x00, 0xb6, 0xc0, 0x9e, 0x87, 0xf5, 0x81, 0xbd, 0xd8, 0xac, 0x08, 0xf2,
  0xd7, 0xce, 0x8c, 0xb5, 0xf8, 0xf6, 0xf3, 0xcb, 0x1d, 0xdc, 0x00, 0xfb,
  0xfa, 0xdd, 0xf0, 0x06, 0xe5, 0xcf, 0x14, 0x00, 0xf5, 0xf7, 0x06, 0xf7,
  0xfd, 0xf7, 0x12, 0x0f, 0x10, 0xfa, 0x0b, 0xf9, 0x02, 0x09, 0x02, 0x09,
  0x34, 0xfe, 0x20, 0xf4, 0xf3, 0x0f, 0x06, 0x21, 0x17, 0x09, 0xfa, 0xe3,
  0x01, 0x09, 0x0d, 0x0f, 0xf4, 0xa8, 0xe8, 0xfa, 0xf0, 0xfa, 0x04, 0xdd,
  0x0b, 0x11, 0x13, 0xe7, 0x8d, 0x07, 0xf6, 0xef, 0x17, 0x2a, 0xef, 0xe5,
  0x08, 0xfe, 0xf7, 0x12, 0xf0, 0xe2, 0x12, 0xee, 0xf8, 0xe3, 0xf6, 0xf6,
  0x16, 0xcc, 0x23, 0xec, 0xfa, 0xf1, 0x1b, 0x15, 0x09, 0x04, 0x08, 0xd0,
  0xe8, 0xf5, 0x05, 0x09, 0x05, 0xc5, 0xc9, 0xec, 0x01, 0x81, 0xec, 0xa9,
  0x07, 0xf7, 0x0e, 0xae, 0xbb, 0x21, 0xd1, 0xe7, 0x0a, 0x1b, 0x00, 0x1a,
  0xd0, 0x23, 0xd5, 0x03, 0x00, 0xf6, 0xf7, 0x16, 0xea, 0xce, 0x00, 0xe1,
  0x1a, 0xda, 0x18, 0x00, 0xf3, 0xf5, 0x1d, 0x16, 0x01, 0x04, 0x20, 0x05,
  0x82, 0xe1, 0x14, 0x1b, 0x27, 0x9f, 0xc7, 0x18, 0xcd, 0xc8, 0xdf, 0x9b,
  0xa8, 0xc8, 0x1c, 0x0d, 0x9b, 0xff, 0xa7, 0x9c, 0x14, 0xff, 0x0b, 0xc4,
  0xf4, 0x3b, 0xcf, 0x03, 0x06, 0x04, 0x05, 0x24, 0xd4, 0xc5, 0xc7, 0xc6,
  0x99, 0x47, 0xc6, 0x55, 0x19, 0xdf, 0xf5, 0xec, 0x05, 0xf3, 0xf2, 0x09,
  0x4d, 0xf0, 0x16, 0xf3, 0xd2, 0x7f, 0xf8, 0xff, 0x11, 0xe7, 0xe9, 0x0a,
  0x18, 0xe5, 0xc8, 0xcc, 0x5b, 0xca, 0xe0, 0xe3, 0xc3, 0x23, 0xe4, 0xbb,
  0xdf, 0xdc, 0xff, 0xff, 0xfb, 0x08, 0xf0, 0x2b, 0x36, 0xde, 0xf1, 0xf0,
  0xe6, 0x0a, 0x0e, 0x8e, 0xd9, 0x11, 0x06, 0x19, 0xfa, 0xe9, 0xea, 0xb8,
  0xdc, 0x0b, 0xf5, 0xef, 0x3d, 0x18, 0x16, 0x96, 0xdf, 0x1a, 0xe6, 0x0d,
  0x01, 0x0d, 0x04, 0xe8, 0xb3, 0x1b, 0x10, 0xf6, 0x43, 0x1a, 0x19, 0xcf,
  0x08, 0x05, 0x16, 0x22, 0xf5, 0xf2, 0xde, 0x8e, 0xc8, 0x04, 0xe1, 0x04,
  0x13, 0x31, 0x0f, 0xe5, 0xe1, 0xf8, 0x12, 0xf3, 0x12, 0x0e, 0x06, 0xb6,
  0x19, 0x1f, 0x10, 0x08, 0x45, 0x46, 0x1d, 0xea, 0xda, 0x0e, 0xf5, 0x23,
  0x14, 0x11, 0x1a, 0x09, 0x12, 0x0d, 0x11, 0x0a, 0x24, 0xf0, 0x1c, 0xe8,
  0xf4, 0x13, 0xf8, 0x11, 0x0e, 0xf5, 0xf7, 0xe0, 0x00, 0x0d, 0xfe, 0x0a,
  0x5b, 0xff, 0x2a, 0xcc, 0x7f, 0x1a, 0x19, 0x14, 0x16, 0xff, 0xe6, 0x13,
  0xd0, 0x27, 0xf5, 0x0c, 0x09, 0x0a, 0x08, 0xb9, 0x73, 0x20, 0x02, 0x13,
  0x4a, 0x05, 0xd3, 0xb9, 0xf3, 0x1c, 0x25, 0x1c, 0x27, 0xcb, 0x28, 0x8c,
  0x3c, 0xf2, 0x4b, 0xf7, 0x2e, 0x07, 0xc5, 0x9b, 0xe5, 0xe3, 0x1e, 0x25,
  0x2b, 0xc3, 0x17, 0x1e, 0x6a, 0x08, 0x4e, 0x06, 0xfb, 0xfd, 0xe5, 0x9e,
  0x8d, 0x3a, 0x08, 0x1c, 0x18, 0x17, 0x41, 0xcd, 0x6b, 0x0e, 0xf1, 0x0d,
  0xfd, 0x03, 0xd5, 0xb4, 0x9c, 0x6f, 0xf0, 0xe5, 0x0e, 0x9f, 0x2f, 0xe9,
  0x33, 0x25, 0x1e, 0x17, 0xff, 0xf9, 0xec, 0xec, 0xa2, 0xee, 0x0f, 0x16,
  0xf2, 0xcf, 0xf8, 0xd0, 0x75, 0x12, 0x2d, 0xf7, 0x3d, 0x35, 0xe6, 0xba,
  0xf5, 0x2f, 0x13, 0x02, 0x3e, 0xd2, 0xed, 0xc8, 0x5a, 0x1a, 0xfc, 0x09,
  0x61, 0x3e, 0x16, 0xf3, 0xdc, 0x3a, 0x1a, 0x25, 0x2e, 0x81, 0xfc, 0xd7,
  0x62, 0x0e, 0x4b, 0xf6, 0x4d, 0xfc, 0xf2, 0xf0, 0x90, 0x0f, 0x16, 0x41,
  0x5c, 0xfc, 0x2d, 0xf2, 0x03, 0xf5, 0x13, 0x1d, 0x15, 0x0e, 0x03, 0xd2,
  0xf3, 0xf3, 0x1e, 0x05, 0xd7, 0x86, 0xf9, 0xe2, 0xfb, 0xe7, 0x05, 0xd7,
  0x16, 0x0f, 0x16, 0xc5, 0x8d, 0x02, 0x13, 0x10, 0xdd, 0xd5, 0xe2, 0xfb,
  0xf7, 0xef, 0x08, 0xe0, 0xd9, 0xce, 0xc3, 0xdc, 0xc1, 0xd6, 0xed, 0xb7,
  0x7f, 0xd3, 0x33, 0xf7, 0x09, 0xfa, 0x26, 0x1f, 0x09, 0x09, 0xff, 0xeb,
  0xa2, 0x1c, 0xff, 0x07, 0xe2, 0xa7, 0xef, 0xe5, 0x13, 0xb3, 0x1b, 0xdd,
  0x10, 0x17, 0xd6, 0xbc, 0xa0, 0x06, 0xee, 0x03, 0xea, 0xd2, 0xc4, 0xdd,
  0xf5, 0xaf, 0xf3, 0xc8, 0xb1, 0xd4, 0xde, 0xe7, 0xfc, 0xf3, 0xbc, 0xb6,
  0x57, 0xc9, 0x12, 0x06, 0xf6, 0x03, 0x0e, 0x20, 0x0d, 0x14, 0x0d, 0x08,
  0xdd, 0xec, 0x14, 0x1a, 0xfb, 0xa7, 0xd4, 0x1b, 0x0b, 0xdd, 0xea, 0xef,
  0xe3, 0xe9, 0xd0, 0x0f, 0xac, 0xda, 0x06, 0xd9, 0xe8, 0xaa, 0x84, 0xe9,
  0x0b, 0xca, 0x06, 0xd9, 0xb1, 0xc1, 0xec, 0xdf, 0xc8, 0x08, 0x8f, 0xa4,
  0x09, 0x12, 0xe4, 0x81, 0xcc, 0x0d, 0xb8, 0xfb, 0xdd, 0xab, 0xee, 0xfc,
  0xf7, 0xc7, 0xbf, 0xc2, 0xed, 0x01, 0xfd, 0xed, 0x0e, 0x0d, 0xfa, 0xfa,
  0x10, 0x0d, 0xec, 0x2c, 0x13, 0xf7, 0x06, 0xfd, 0xe1, 0xec, 0xb8, 0xff,
  0x1f, 0xfd, 0x05, 0xc3, 0x0a, 0x05, 0x0d, 0xf7, 0x10, 0x04, 0xd5, 0xfa,
  0x10, 0xea, 0x01, 0xa8, 0xd2, 0x05, 0xd3, 0x0b, 0xd8, 0xc3, 0xf6, 0xd3,
  0xb9, 0x96, 0xe7, 0xde, 0x39, 0x0d, 0x0c, 0x02, 0x22, 0x04, 0x06, 0x0a,
  0x07, 0x11, 0x02, 0x02, 0xde, 0x3b, 0x09, 0x02, 0xef, 0xba, 0xf0, 0x13,
  0x02, 0xa4, 0x18, 0xcc, 0xe0, 0xe2, 0xfc, 0xf5, 0xdc, 0xf3, 0xb4, 0xd5,
  0x02, 0xdf, 0xf0, 0xcb, 0xfa, 0x02, 0xdb, 0x06, 0xcd, 0xbf, 0x07, 0x1d,
  0xfb, 0x0e, 0xd8, 0xd5, 0x2f, 0xf1, 0x0f, 0x0e, 0x08, 0x09, 0x07, 0x0b,
  0x1b, 0x0e, 0x18, 0x18, 0xf8, 0x0f, 0x0f, 0x0b, 0x16, 0xac, 0x9c, 0x09,
  0x1a, 0xed, 0xf8, 0xcf, 0xec, 0xf8, 0x1a, 0x09, 0xbb, 0x03, 0xd3, 0xc7,
  0xf9, 0xe6, 0xce, 0x03, 0xd4, 0xd3, 0xde, 0xda, 0xdb, 0xfc, 0x07, 0x26,
  0xe9, 0x02, 0x03, 0xe4, 0xf8, 0xc1, 0xd7, 0xf2, 0xda, 0x8a, 0x02, 0xf1,
  0xa9, 0x90, 0x01, 0x1a, 0xe0, 0xbf, 0xf5, 0xf3, 0xe7, 0xdd, 0xb6, 0xe4,
  0xbf, 0x81, 0xf9, 0xe9, 0xaf, 0xa8, 0xe6, 0xf2, 0xfc, 0xc0, 0x06, 0xf0,
  0xec, 0xfd, 0xfa, 0x0c, 0x1b, 0xef, 0x03, 0xf9, 0x0a, 0x00, 0xd4, 0x45,
  0x11, 0xe7, 0x0c, 0x0e, 0xd2, 0x1c, 0x08, 0x63, 0x0e, 0x15, 0x11, 0x06,
  0x08, 0x08, 0xda, 0x38, 0x32, 0xf3, 0x05, 0x02, 0xda, 0x21, 0xc9, 0xf6,
  0x08, 0xf1, 0xbe, 0xd8, 0x0e, 0x09, 0x1a, 0xe9, 0x19, 0x25, 0xe3, 0xc6,
  0xfb, 0x13, 0x01, 0x11, 0x00, 0x07, 0x02, 0xfb, 0xf1, 0xf9, 0xfe, 0x00,
  0xea, 0x04, 0x0c, 0x0c, 0xc5, 0x14, 0xf7, 0x1e, 0xe2, 0x00, 0xe9, 0xfa,
  0xfe, 0x0a, 0x07, 0x1e, 0x25, 0x0d, 0xe7, 0xe7, 0x06, 0x0e, 0x11, 0xf5,
  0xc2, 0x01, 0xed, 0x02, 0xf6, 0xf9, 0x08, 0x18, 0x0e, 0x01, 0x09, 0x0d,
  0xf0, 0x09, 0xd1, 0xcd, 0xc0, 0xbd, 0xcf, 0xd4, 0xde, 0xd4, 0x01, 0x0b,
  0xd5, 0xf6, 0xce, 0xad, 0xd9, 0x45, 0xc9, 0xd1, 0xc5, 0xc6, 0xc6, 0x03,
  0x0d, 0xe7, 0xfa, 0xcf, 0x54, 0xe1, 0xdc, 0x0d, 0xfe, 0xe4, 0xaf, 0xcb,
  0xf2, 0x81, 0xf3, 0xe0, 0xe3, 0xc6, 0x24, 0xea, 0x4c, 0xe0, 0xef, 0xfc,
  0x1c, 0x2b, 0x08, 0xd6, 0x36, 0xdc, 0x18, 0xff, 0xfd, 0xf4, 0xf3, 0xcc,
  0x1b, 0xf5, 0xfa, 0xe3, 0xf3, 0x32, 0x10, 0xfd, 0x1c, 0xdf, 0x0e, 0x10,
  0x09, 0xff, 0xeb, 0x2e, 0x32, 0x15, 0x14, 0x04, 0x10, 0x11, 0xdf, 0x22,
  0x01, 0xcd, 0x01, 0xcf, 0xfa, 0xf6, 0x17, 0xec, 0xf2, 0x0d, 0xe1, 0xbc,
  0xf4, 0x1f, 0xf9, 0x1e, 0xee, 0xf5, 0x09, 0xeb, 0x09, 0xef, 0x16, 0x0d,
  0xca, 0x27, 0x0e, 0xdd, 0x04, 0x3b, 0x1c, 0xfc, 0xda, 0xf7, 0xec, 0x02,
  0x20, 0x09, 0x1f, 0x5c, 0x39, 0x10, 0x24, 0x02, 0xf6, 0x05, 0xa3, 0x07,
  0xe1, 0xfc, 0x0b, 0xd6, 0xff, 0xf6, 0x32, 0x47, 0x10, 0x0b, 0xcc, 0x9a,
  0xef, 0x17, 0x08, 0x1f, 0xfd, 0xfb, 0x01, 0xf7, 0x06, 0x02, 0xc6, 0x17,
  0x0d, 0xed, 0xfa, 0xf9, 0xea, 0x2a, 0x00, 0x2b, 0x0b, 0x02, 0x10, 0x0e,
  0xfe, 0xfa, 0xb1, 0x0b, 0x1f, 0xe6, 0x01, 0x07, 0xc2, 0x14, 0xf4, 0x0b,
  0x16, 0xfd, 0xf9, 0x00, 0x07, 0xf8, 0xdf, 0xed, 0x01, 0xf1, 0x11, 0xfc,
  0xee, 0x1f, 0x0b, 0x1c, 0xfd, 0x05, 0x01, 0x0d, 0x0a, 0x0e, 0xea, 0xe6,
  0x24, 0xec, 0x0e, 0xff, 0xfe, 0x42, 0xf9, 0x14, 0x15, 0x17, 0x0b, 0xf9,
  0x21, 0x0d, 0xe4, 0x0f, 0x11, 0xf2, 0x02, 0xff, 0xb2, 0x1b, 0x09, 0xe6,
  0x01, 0xf0, 0x08, 0x0b, 0x08, 0x07, 0xf0, 0x81, 0xeb, 0xfe, 0x10, 0x15,
  0xfa, 0x25, 0x05, 0x14, 0x09, 0xfb, 0xfe, 0xfd, 0xfe, 0x10, 0xe6, 0xf1,
  0x1d, 0xfd, 0x09, 0x04, 0xc3, 0x1d, 0x00, 0x2a, 0x0c, 0xc9, 0x14, 0x0b,
  0xf2, 0xe4, 0xe2, 0xcb, 0xfd, 0x08, 0x02, 0x0e, 0xc7, 0xd4, 0xf4, 0x06,
  0x1a, 0x8c, 0x06, 0xf4, 0xd0, 0xbd, 0xee, 0xa6, 0xd4, 0x0c, 0x0d, 0x06,
  0x08, 0xce, 0xfe, 0xf2, 0xf7, 0xf0, 0xf1, 0xee, 0xf2, 0xdc, 0x06, 0xf5,
  0xe8, 0x8f, 0x02, 0x0e, 0xf4, 0xe4, 0x04, 0xed, 0x01, 0xf3, 0x0f, 0x08,
  0xff, 0xf5, 0x04, 0x07, 0x0c, 0xe5, 0x0f, 0xfe, 0xfd, 0x0a, 0x0a, 0xfe,
  0xfd, 0xf0, 0x0d, 0x09, 0x07, 0x01, 0xfc, 0x03, 0x1e, 0xfd, 0x02, 0xfe,
  0x26, 0xd6, 0xfb, 0xfa, 0xfc, 0xe4, 0xf0, 0xff, 0xc3, 0xab, 0x12, 0xf9,
  0xc6, 0xc1, 0xff, 0xf6, 0x02, 0x00, 0x00, 0x04, 0xe0, 0x06, 0x10, 0x0e,
  0xf2, 0x00, 0x10, 0x0c, 0x36, 0xb7, 0xfb, 0x0d, 0xeb, 0x13, 0x0a, 0x04,
  0x07, 0xef, 0x10, 0x0e, 0x06, 0x03, 0x0a, 0xf7, 0x21, 0x03, 0x15, 0x12,
  0x15, 0xfd, 0x07, 0x13, 0x24, 0xb8, 0x18, 0x05, 0xd1, 0xb3, 0x0e, 0xe5,
  0x16, 0xd9, 0x0f, 0x1e, 0x12, 0xde, 0xe3, 0x07, 0xe3, 0xcc, 0xec, 0xe0,
  0x81, 0xb9, 0x25, 0x0e, 0xfb, 0xf9, 0xeb, 0xa3, 0xf8, 0xc1, 0x01, 0x0b,
  0x03, 0xe9, 0x08, 0xf8, 0x00, 0xd9, 0x07, 0xe7, 0xcc, 0xb3, 0xff, 0x00,
  0xf7, 0xca, 0xf1, 0x25, 0xfc, 0xc1, 0x12, 0xd9, 0xd6, 0xf2, 0x0a, 0x08,
  0xfa, 0x13, 0xf2, 0xcd, 0xed, 0x40, 0xe6, 0xf1, 0xf3, 0xe5, 0xe3, 0xf0,
  0xec, 0xdf, 0xf7, 0xd5, 0x3e, 0xbb, 0xee, 0x03, 0x0a, 0x27, 0xf9, 0xcf,
  0x04, 0xfc, 0xf7, 0x0c, 0xf3, 0xf2, 0xe6, 0xfe, 0x0b, 0xea, 0xf2, 0xf6,
  0x17, 0xed, 0xd5, 0x8a, 0xbe, 0xef, 0xb9, 0xe7, 0xbc, 0x81, 0x0f, 0xd4,
  0xcb, 0xb0, 0xa2, 0xab, 0x0c, 0xe8, 0xf9, 0xe9, 0xfb, 0x15, 0xd6, 0xf8,
  0x1a, 0x23, 0x1e, 0x15, 0xdd, 0x1d, 0x08, 0xfc, 0x11, 0xfb, 0xfc, 0x00,
  0xe8, 0x15, 0xdd, 0x0c, 0xfe, 0x05, 0x2e, 0xfb, 0xfa, 0x33, 0xdf, 0xe8,
  0xf9, 0x0f, 0xe6, 0x01, 0xfb, 0x09, 0xed, 0xf4, 0xfb, 0xef, 0x23, 0x2b,
  0x18, 0x13, 0xc2, 0xaa, 0x06, 0x09, 0x04, 0x3d, 0xd0, 0x11, 0xf9, 0x0b,
  0x19, 0x1e, 0x21, 0x3d, 0x05, 0xf9, 0x0d, 0xfd, 0x26, 0xfa, 0x01, 0x0c,
  0xe2, 0xfc, 0xf7, 0x08, 0xf8, 0xfb, 0x11, 0x32, 0xee, 0x2f, 0x03, 0xef,
  0x25, 0x0a, 0xb4, 0xd7, 0x03, 0xfd, 0xe8, 0xee, 0xfb, 0x07, 0x04, 0xe8,
  0xd9, 0x37, 0x93, 0x9e, 0x16, 0xf2, 0x06, 0xdc, 0xf0, 0x03, 0xe3, 0x03,
  0x13, 0x03, 0x0c, 0x12, 0xfd, 0x0b, 0x11, 0x06, 0xe4, 0xd1, 0xd8, 0xfb,
  0x19, 0x08, 0x01, 0xb8, 0x14, 0x10, 0x30, 0xd2, 0xdd, 0x26, 0xee, 0x16,
  0x2a, 0xbb, 0xc3, 0xfc, 0x20, 0xe7, 0xe9, 0xe5, 0xe5, 0xee, 0x23, 0xe2,
  0xaf, 0x3e, 0xaa, 0xa3, 0x42, 0x10, 0x15, 0xf1, 0x18, 0x00, 0x0c, 0x20,
  0x11, 0x07, 0x1c, 0xe5, 0xcc, 0x4f, 0xfd, 0x18, 0x04, 0xa3, 0xcf, 0xf6,
  0x1e, 0xd5, 0xf5, 0x81, 0xfe, 0x15, 0x24, 0x11, 0xcd, 0x31, 0xd1, 0xce,
  0x25, 0xcd, 0xe0, 0xfd, 0x19, 0x06, 0xf1, 0xf3, 0xdf, 0xfa, 0x38, 0x20,
  0xbf, 0x1f, 0xcf, 0xd9, 0x2c, 0xd9, 0x04, 0xf4, 0x0c, 0x0a, 0x03, 0x0b,
  0x14, 0x02, 0x42, 0x2e, 0xf7, 0x23, 0x0a, 0x0d, 0x33, 0xb8, 0xd4, 0xdc,
  0x17, 0xfa, 0xf8, 0xba, 0xee, 0x0a, 0x2e, 0x27, 0xbb, 0x25, 0xea, 0xeb,
  0xd9, 0x1e, 0xfb, 0x1a, 0x00, 0xed, 0xff, 0xfa, 0x00, 0xf9, 0xfe, 0xe8,
  0x01, 0xfe, 0x03, 0x0a, 0xe4, 0x1b, 0x00, 0x13, 0x1c, 0xd5, 0x11, 0xfb,
  0x01, 0xf1, 0xfe, 0xb8, 0xe7, 0x1c, 0x06, 0x10, 0x04, 0xf0, 0x0b, 0x04,
  0x10, 0xca, 0x11, 0x07, 0x0a, 0xe3, 0x0c, 0xde, 0xe1, 0x1f, 0x0a, 0x0a,
  0xc4, 0x19, 0xfb, 0x14, 0x08, 0xf0, 0x06, 0x03, 0xf5, 0x08, 0xfa, 0xce,
  0xc9, 0xfb, 0x1c, 0x12, 0xd2, 0xcf, 0xfd, 0x25, 0x37, 0x8e, 0x31, 0xfc,
  0xed, 0xc6, 0xe5, 0xb0, 0xb1, 0x1b, 0x17, 0x14, 0xcb, 0xf1, 0xff, 0x11,
  0x38, 0x81, 0x14, 0xff, 0xdd, 0xb6, 0xf1, 0xe2, 0x2f, 0x07, 0x07, 0x1b,
  0xe2, 0xe8, 0xf2, 0x0c, 0x0b, 0xb2, 0x05, 0xfc, 0xe9, 0xe3, 0x0f, 0xe0,
  0xf5, 0xf7, 0x01, 0xeb, 0x10, 0xe1, 0xe0, 0xff, 0x27, 0xa3, 0x07, 0xf1,
  0xce, 0xbd, 0x2d, 0xb1, 0xeb, 0x16, 0xf8, 0xf1, 0xf8, 0xf7, 0xef, 0xf3,
  0xfe, 0xcb, 0x04, 0xf1, 0xf1, 0xdc, 0x2a, 0xe8, 0xf9, 0xea, 0x02, 0xf3,
  0x3f, 0xf1, 0xfe, 0x33, 0xe4, 0xef, 0xc6, 0xf7, 0xc0, 0xc8, 0xe2, 0x1c,
  0x07, 0x81, 0xde, 0xc6, 0xdf, 0xf7, 0x24, 0x59, 0xd3, 0xde, 0xf4, 0x00,
  0xe7, 0xe8, 0xc5, 0x60, 0x3f, 0xaf, 0xf3, 0xdc, 0xce, 0xf9, 0xea, 0x04,
  0x09, 0xcc, 0xfe, 0xec, 0xf0, 0xe8, 0xf2, 0x11, 0x05, 0xfa, 0x0c, 0xf8,
  0x27, 0x3c, 0x05, 0xde, 0xbf, 0x0b, 0xe3, 0x1d, 0xdd, 0xec, 0xcc, 0x19,
  0x3b, 0x98, 0xf3, 0xef, 0xe5, 0x35, 0xfd, 0x0a, 0xfb, 0x16, 0xeb, 0x0b,
  0x14, 0x06, 0xa9, 0x47, 0x16, 0x89, 0x09, 0x06, 0xe0, 0x1d, 0x0f, 0xf2,
  0xfa, 0xef, 0xfc, 0xfd, 0x0c, 0x12, 0xe4, 0xca, 0x1a, 0xf5, 0x04, 0xf4,
  0xfc, 0x21, 0x17, 0x0d, 0xcc, 0xfe, 0x02, 0x1c, 0x00, 0x08, 0x06, 0x00,
  0x1b, 0x12, 0x04, 0xf4, 0x20, 0x41, 0x19, 0x10, 0xd8, 0xf9, 0x06, 0x17,
  0x08, 0x10, 0xb4, 0x24, 0x37, 0xdb, 0x0d, 0x0c, 0x1d, 0x1a, 0x0b, 0x0e,
  0xee, 0x00, 0x0d, 0x1d, 0x03, 0xfe, 0xfc, 0x06, 0x0b, 0x06, 0x07, 0xf5,
  0x30, 0xe8, 0xfe, 0x0c, 0x70, 0xc9, 0x43, 0x17, 0xfe, 0xd8, 0x00, 0xcf,
  0xac, 0x29, 0x0d, 0x36, 0x27, 0x08, 0x0c, 0xbb, 0x60, 0xcd, 0x26, 0x34,
  0x36, 0xe0, 0xd2, 0x8f, 0xb9, 0x2b, 0x0f, 0x19, 0x09, 0xc4, 0x07, 0xcb,
  0x2b, 0xfb, 0x04, 0x11, 0x11, 0xf9, 0x1e, 0x13, 0xc6, 0x19, 0xed, 0x1c,
  0xdd, 0xe9, 0x24, 0x2e, 0x56, 0xa6, 0x59, 0x09, 0xeb, 0xf0, 0xe8, 0x86,
  0xe2, 0x1f, 0x24, 0x1d, 0x28, 0xff, 0x29, 0x0f, 0x7f, 0xec, 0x10, 0x03,
  0xc1, 0xbb, 0xb0, 0x9c, 0x8e, 0x6f, 0xde, 0xed, 0xf3, 0xb9, 0x1e, 0xfb,
  0x53, 0x2c, 0xfe, 0xe6, 0xfc, 0x1c, 0x26, 0x12, 0x9c, 0x16, 0xef, 0x00,
  0xdf, 0xbf, 0xe3, 0xf6, 0x5f, 0xa7, 0x3e, 0xff, 0x1b, 0x1a, 0xfd, 0xb9,
  0xcb, 0x03, 0x1f, 0x22, 0x22, 0xb8, 0xd8, 0xff, 0x69, 0xd4, 0x27, 0xec,
  0xf9, 0xdf, 0xf4, 0xe8, 0x8d, 0x3a, 0xfd, 0xf8, 0xdb, 0xc7, 0xdf, 0x0e,
  0x3b, 0x28, 0xf7, 0xee, 0xfe, 0x19, 0x3e, 0x2d, 0xc5, 0xfc, 0xc4, 0xfb,
  0xe6, 0x48, 0xf7, 0x6f, 0x0d, 0xda, 0x10, 0xe3, 0x11, 0xef, 0xb0, 0xdb,
  0x25, 0x86, 0xff, 0xf8, 0xea, 0x31, 0xfe, 0x33, 0x4b, 0x03, 0x22, 0x13,
  0x16, 0x02, 0xed, 0xd3, 0xfd, 0x13, 0x01, 0x0d, 0x09, 0xf4, 0x1b, 0x0e,
  0x3d, 0xf3, 0x04, 0x02, 0x07, 0x0e, 0xf5, 0x0b, 0xee, 0x12, 0x0d, 0xfa,
  0xdf, 0x48, 0x0c, 0x43, 0x41, 0xd7, 0x09, 0x02, 0xf2, 0xf8, 0xb5, 0x12,
  0x64, 0xb0, 0x17, 0x0f, 0x8b, 0x52, 0xfa, 0x3e, 0x3f, 0xc3, 0x32, 0x19,
  0xe1, 0xca, 0xa8, 0xce, 0x29, 0xee, 0x03, 0xfc, 0xbe, 0x19, 0xfa, 0xfa,
  0x51, 0xd6, 0x12, 0x14, 0xf3, 0xf0, 0xfe, 0xd4, 0xed, 0x04, 0x2b, 0x2a,
  0xba, 0x12, 0x0a, 0xf2, 0x0d, 0xce, 0x10, 0xf8, 0xef, 0x12, 0x0d, 0xb4,
  0xeb, 0xd2, 0x29, 0x0b, 0xb1, 0xe3, 0xdd, 0x1e, 0x2a, 0x81, 0x32, 0x0c,
  0xd9, 0xa4, 0x04, 0xa3, 0xcb, 0xfa, 0x07, 0x0a, 0xe7, 0xab, 0xfd, 0x25,
  0x2c, 0xd2, 0xfd, 0xe0, 0xdf, 0xe7, 0x33, 0x3a, 0x8d, 0xf3, 0xd5, 0xe2,
  0x21, 0x1a, 0xf9, 0xea, 0xfd, 0xfa, 0xfe, 0x0c, 0x09, 0xfb, 0x14, 0xd1,
  0x1b, 0x19, 0xf1, 0x05, 0x59, 0x03, 0x19, 0xeb, 0xf0, 0x07, 0x06, 0x0c,
  0x16, 0x09, 0x06, 0x04, 0xe4, 0x0d, 0x18, 0x0a, 0xd5, 0x87, 0x95, 0xfe,
  0x10, 0xe1, 0x10, 0x89, 0xfe, 0xf9, 0x13, 0xe7, 0xc7, 0x1b, 0xd7, 0xd2,
  0x17, 0xdc, 0x0e, 0x08, 0xff, 0xea, 0x19, 0x02, 0xec, 0xf4, 0x08, 0xe5,
  0x9f, 0x12, 0x03, 0x03, 0x4a, 0xd2, 0x12, 0xec, 0x10, 0xf1, 0x15, 0x1b,
  0x06, 0xf9, 0xfb, 0xc0, 0x81, 0x0a, 0x15, 0x16, 0xdb, 0xc6, 0x83, 0xf9,
  0x0d, 0xc8, 0x05, 0xaa, 0xef, 0xfc, 0x12, 0xd5, 0xc6, 0x2a, 0x9d, 0xc1,
  0x0a, 0xf2, 0xff, 0xfc, 0x09, 0xf9, 0x06, 0xf4, 0xea, 0xf7, 0x25, 0x12,
  0xda, 0x1f, 0xfe, 0xef, 0x19, 0xf5, 0x0a, 0xff, 0x0f, 0x02, 0xfc, 0x0e,
  0x12, 0xff, 0x18, 0x07, 0xfc, 0x06, 0x03, 0x08, 0xff, 0x93, 0xb0, 0x17,
  0xfb, 0x01, 0xed, 0x91, 0xf5, 0x00, 0x35, 0x05, 0x84, 0x16, 0xa5, 0xbf,
  0xef, 0x8d, 0x08, 0xf6, 0xf2, 0xf5, 0x16, 0xfd, 0xf8, 0xd8, 0xe1, 0xf8,
  0xa7, 0x9c, 0x09, 0x17, 0xfa, 0xf6, 0x10, 0xf9, 0xf5, 0x01, 0x09, 0x0d,
  0x0f, 0x05, 0xcc, 0x01, 0x09, 0xfc, 0x15, 0x0b, 0xef, 0x19, 0x0c, 0xfd,
  0x05, 0x03, 0x10, 0x0e, 0x11, 0x05, 0xd2, 0x11, 0x26, 0xef, 0x0c, 0xfc,
  0x10, 0xb4, 0xf8, 0xfe, 0xfe, 0xa8, 0xe0, 0xf6, 0xb3, 0x86, 0xf1, 0xee,
  0xbc, 0x94, 0xfe, 0xd8, 0x06, 0x01, 0x0d, 0xee, 0x09, 0xd4, 0x22, 0x2d,
  0xf9, 0xce, 0xdd, 0xfd, 0xd8, 0xd1, 0x0c, 0x21, 0xf9, 0x06, 0x0b, 0xed,
  0x04, 0xef, 0x0a, 0x15, 0x08, 0x09, 0xcc, 0xee, 0xbd, 0xfe, 0x18, 0x01,
  0x21, 0xed, 0xae, 0xd5, 0xdd, 0xc0, 0xc4, 0x9f, 0xe7, 0xc4, 0x18, 0xea,
  0xe1, 0xc7, 0xc3, 0xca, 0x1a, 0x8c, 0xe4, 0xee, 0xea, 0xb6, 0xf7, 0x0a,
  0x81, 0xa8, 0x11, 0xed, 0xb1, 0xae, 0x0f, 0xc5, 0xf1, 0xcb, 0xfe, 0x08,
  0x15, 0xf1, 0x0d, 0x0e, 0x0e, 0xdb, 0xe6, 0xf3, 0xa8, 0xa3, 0x08, 0x03,
  0xdc, 0x1c, 0xf2, 0xb4, 0x00, 0xe5, 0xfb, 0x00, 0xfd, 0xf6, 0x01, 0x25,
  0x15, 0xf9, 0xf3, 0x0c, 0xe7, 0x02, 0xe6, 0xb4, 0x02, 0xbf, 0xe8, 0xf1,
  0xdb, 0xe2, 0xfd, 0x12, 0x20, 0xcc, 0xdd, 0x02, 0xfd, 0xda, 0xdd, 0xd2,
  0xef, 0x84, 0xeb, 0xdc, 0xb9, 0xc3, 0x14, 0x0e, 0x03, 0xdc, 0xfb, 0xe7,
  0xf3, 0x0d, 0x03, 0x04, 0x0b, 0x0f, 0xfd, 0x00, 0x13, 0x0a, 0x02, 0x0b,
  0x1c, 0x07, 0xfe, 0x0c, 0xf9, 0x19, 0x02, 0x28, 0xfe, 0x08, 0x04, 0x06,
  0x08, 0xfe, 0x07, 0x38, 0x4a, 0x12, 0x13, 0x07, 0x00, 0xfe, 0xf5, 0x23,
  0x09, 0x12, 0xf5, 0x01, 0x12, 0x13, 0x19, 0x38, 0x32, 0x05, 0x0d, 0xfc,
  0x20, 0xd5, 0xfb, 0xd7, 0xba, 0xdd, 0xde, 0xe7, 0x83, 0xb1, 0x11, 0x0b,
  0xcd, 0xee, 0xd7, 0xd2, 0xfe, 0xc5, 0x02, 0x11, 0xc2, 0xe1, 0xed, 0xe5,
  0xc7, 0xdd, 0x1e, 0x0d, 0xe4, 0x0e, 0xdf, 0xc0, 0xfe, 0xed, 0xfa, 0x02,
  0x81, 0x01, 0xef, 0xf5, 0xc9, 0xdd, 0x18, 0x24, 0xae, 0xcc, 0xe6, 0xd7,
  0x19, 0xf9, 0x0c, 0xf8, 0x16, 0x03, 0x01, 0x0d, 0x05, 0x0c, 0x0b, 0x0e,
  0xf5, 0xfc, 0x05, 0x04, 0xd4, 0x09, 0xf1, 0xd8, 0x12, 0x0f, 0xfc, 0x04,
  0x0f, 0x11, 0x00, 0xf1, 0xfa, 0x06, 0x02, 0x16, 0xad, 0x00, 0xc2, 0x81,
  0xf6, 0x0c, 0xb0, 0xbc, 0x0d, 0x0c, 0xf4, 0x9f, 0x07, 0xef, 0xe3, 0xe2,
  0xf2, 0xf8, 0x07, 0xe1, 0x00, 0x07, 0xff, 0x00, 0x04, 0x0b, 0x0b, 0x11,
  0xed, 0xf9, 0xfc, 0xfc, 0xdd, 0x06, 0x0d, 0xc0, 0xfc, 0x05, 0x06, 0x0c,
  0x07, 0x0a, 0x07, 0x06, 0xef, 0x01, 0x01, 0x00, 0xc2, 0xff, 0xf2, 0xe3,
  0x0e, 0x0b, 0xf5, 0xf1, 0x04, 0x07, 0xfd, 0x21, 0x03, 0xe0, 0x06, 0x0c,
  0xea, 0xba, 0x00, 0xf8, 0xf5, 0xfc, 0xfd, 0x0e, 0x09, 0xf3, 0x13, 0x11,
  0xa5, 0xfc, 0x02, 0x08, 0xf6, 0xd1, 0xfd, 0xf2, 0xf0, 0x0f, 0x00, 0x0a,
  0x17, 0x0e, 0x00, 0x0b, 0xea, 0xd9, 0x07, 0x12, 0xf3, 0xf1, 0x02, 0x00,
  0xff, 0x0d, 0xfa, 0xfe, 0x0a, 0x08, 0xe4, 0x10, 0x1d, 0xf8, 0xfb, 0x00,
  0xf5, 0xf9, 0xd5, 0x1c, 0xe1, 0xdd, 0xad, 0xc6, 0xd7, 0xd9, 0xe8, 0x22,
  0x2f, 0x94, 0xc6, 0xe1, 0xe4, 0x06, 0xda, 0x00, 0xd1, 0xe0, 0xd0, 0xd5,
  0xdc, 0xe7, 0xe4, 0x23, 0x26, 0x9e, 0xc6, 0xcf, 0xe8, 0x06, 0xd3, 0xcf,
  0xe1, 0xe1, 0xd6, 0xe6, 0xf5, 0xfa, 0xcc, 0x1c, 0x3b, 0xa2, 0xea, 0xeb,
  0x09, 0x21, 0xf8, 0x2d, 0x10, 0x27, 0xf0, 0x00, 0x12, 0x05, 0xcb, 0x61,
  0x40, 0xb3, 0x0a, 0xfa, 0xe1, 0x22, 0xee, 0x60, 0xfe, 0x16, 0xf3, 0xf8,
  0x1f, 0x1a, 0xb0, 0x7f, 0x3d, 0x85, 0xf8, 0xe6, 0xef, 0xf2, 0xff, 0x05,
  0x01, 0x0d, 0x00, 0xf7, 0x1d, 0x11, 0xdd, 0x44, 0x33, 0xe7, 0x00, 0x09,
  0xfc, 0x2f, 0x13, 0x03, 0xce, 0x21, 0xf1, 0x14, 0x0d, 0x11, 0xfc, 0x21,
  0x2b, 0xf5, 0xfa, 0xf9, 0xf6, 0x37, 0x04, 0x2f, 0xc2, 0x0e, 0xf3, 0x00,
  0xf9, 0x16, 0xc1, 0x28, 0x25, 0xc7, 0xf7, 0xfa, 0xed, 0x1d, 0x06, 0x10,
  0xf6, 0x02, 0xf6, 0x0d, 0x0f, 0x0e, 0xe4, 0x0a, 0x0f, 0xda, 0x0c, 0x15,
  0x06, 0xfe, 0xff, 0xff, 0x04, 0x00, 0x00, 0x00, 0x80, 0x00, 0x00, 0x00,
  0xdd, 0x00, 0x00, 0x00, 0x6d, 0x01, 0x00, 0x00, 0x38, 0x00, 0x00, 0x00,
  0xa7, 0x01, 0x00, 0x00, 0x48, 0x02, 0x00, 0x00, 0x1a, 0xff, 0xff, 0xff,
  0x12, 0xfd, 0xff, 0xff, 0xaf, 0x01, 0x00, 0x00, 0x48, 0x02, 0x00, 0x00,
  0xac, 0x02, 0x00, 0x00, 0xb0, 0xfd, 0xff, 0xff, 0x17, 0x00, 0x00, 0x00,
  0xb6, 0x01, 0x00, 0x00, 0x44, 0x01, 0x00, 0x00, 0xe6, 0xfe, 0xff, 0xff,
  0x2b, 0xfb, 0xff, 0xff, 0x0c, 0x00, 0x00, 0x00, 0x8d, 0x00, 0x00, 0x00,
  0x08, 0x00, 0x00, 0x00, 0xcf, 0x00, 0x00, 0x00, 0xe6, 0x01, 0x00, 0x00,
  0x9f, 0x01, 0x00, 0x00, 0x04, 0x02, 0x00, 0x00, 0x1f, 0x01, 0x00, 0x00,
  0xb4, 0x01, 0x00, 0x00, 0x4b, 0xff, 0xff, 0xff, 0x14, 0x05, 0x00, 0x00,
  0x02, 0x00, 0x00, 0x00, 0xc7, 0x00, 0x00, 0x00, 0xaa, 0x00, 0x00, 0x00,
  0xd9, 0xfd, 0xff, 0xff, 0x01, 0x01, 0x00, 0x00, 0x92, 0xfe, 0xff, 0xff,
  0x04, 0x00, 0x00, 0x00, 0xa0, 0x00, 0x00, 0x00, 0xba, 0x2c, 0x04, 0xf7,
  0x20, 0x24, 0xcb, 0xfd, 0x00, 0xbe, 0xfd, 0x2e, 0x12, 0xd8, 0x0c, 0x18,
  0x13, 0xc1, 0xba, 0xdf, 0x0c, 0xf0, 0x1f, 0x15, 0xb0, 0x06, 0x1e, 0x1c,
  0xf8, 0xcc, 0x11, 0xcc, 0xae, 0x2e, 0xd8, 0x06, 0xe8, 0x0a, 0x81, 0x04,
  0xff, 0xf5, 0x1b, 0x12, 0x25, 0x0f, 0x0f, 0x29, 0x1e, 0xb3, 0x17, 0xe0,
  0xf0, 0x1e, 0x22, 0xbe, 0xf6, 0xfd, 0xcc, 0x1c, 0xd5, 0xab, 0x09, 0x92,
  0x24, 0x09, 0x1f, 0xe4, 0x20, 0xa1, 0x11, 0xc0, 0x17, 0xe8, 0x19, 0xd0,
  0x18, 0xd4, 0xc5, 0xcb, 0xb8, 0x23, 0x06, 0x05, 0x33, 0x10, 0x08, 0x94,
  0x15, 0xa2, 0xf6, 0xed, 0x04, 0x1d, 0xc9, 0x15, 0x2b, 0xbb, 0x2b, 0x19,
  0xb4, 0xd8, 0xf7, 0x11, 0xfd, 0x13, 0x39, 0x42, 0xaf, 0x0c, 0x14, 0xbf,
  0x9c, 0x33, 0x14, 0x10, 0x13, 0xb9, 0xa8, 0x15, 0x18, 0x05, 0x22, 0xb2,
  0x24, 0x26, 0x26, 0x1c, 0x27, 0xa5, 0xc2, 0x1b, 0x10, 0x5a, 0x3f, 0x0e,
  0xaa, 0x14, 0xae, 0xd1, 0x12, 0x11, 0x10, 0x0d, 0xb1, 0xea, 0xe2, 0x31,
  0xc4, 0x12, 0xd5, 0x30, 0x28, 0x0a, 0x34, 0x08, 0xc8, 0xa6, 0xb8, 0x21,
  0x3e, 0xff, 0xff, 0xff, 0x04, 0x00, 0x00, 0x00, 0x14, 0x00, 0x00, 0x00,
  0x7b, 0x01, 0x00, 0x00, 0x3b, 0xfd, 0xff, 0xff, 0xf7, 0x06, 0x00, 0x00,
  0x65, 0xfe, 0xff, 0xff, 0xcd, 0xfc, 0xff, 0xff, 0x5e, 0xff, 0xff, 0xff,
  0x04, 0x00, 0x00, 0x00, 0x08, 0x00, 0x00, 0x00, 0x01, 0x00, 0x00, 0x00,
  0x02, 0x00, 0x00, 0x00, 0x60, 0xf0, 0xff, 0xff, 0x64, 0xf0, 0xff, 0xff,
  0x0f, 0x00, 0x00, 0x00, 0x4d, 0x4c, 0x49, 0x52, 0x20, 0x43, 0x6f, 0x6e,
  0x76, 0x65, 0x72, 0x74, 0x65, 0x64, 0x2e, 0x00, 0x01, 0x00, 0x00, 0x00,
  0x14, 0x00, 0x00, 0x00, 0x00, 0x00, 0x0e, 0x00, 0x18, 0x00, 0x14, 0x00,
  0x10, 0x00, 0x0c, 0x00, 0x08, 0x00, 0x04, 0x00, 0x0e, 0x00, 0x00, 0x00,
  0x14, 0x00, 0x00, 0x00, 0x1c, 0x00, 0x00, 0x00, 0xb0, 0x01, 0x00, 0x00,
  0xb4, 0x01, 0x00, 0x00, 0xb8, 0x01, 0x00, 0x00, 0x04, 0x00, 0x00, 0x00,
  0x6d, 0x61, 0x69, 0x6e, 0x00, 0x00, 0x00, 0x00, 0x06, 0x00, 0x00, 0x00,
  0x4c, 0x01, 0x00, 0x00, 0xfc, 0x00, 0x00, 0x00, 0xbc, 0x00, 0x00, 0x00,
  0x88, 0x00, 0x00, 0x00, 0x40, 0x00, 0x00, 0x00, 0x04, 0x00, 0x00, 0x00,
  0x92, 0xff, 0xff, 0xff, 0x1c, 0x00, 0x00, 0x00, 0x00, 0x00, 0x00, 0x09,
  0x1c, 0x00, 0x00, 0x00, 0x20, 0x00, 0x00, 0x00, 0x03, 0x00, 0x00, 0x00,
  0x00, 0x00, 0x06, 0x00, 0x08, 0x00, 0x04, 0x00, 0x06, 0x00, 0x00, 0x00,
  0x00, 0x00, 0x80, 0x3f, 0x01, 0x00, 0x00, 0x00, 0x0f, 0x00, 0x00, 0x00,
  0x01, 0x00, 0x00, 0x00, 0x0e, 0x00, 0x00, 0x00, 0xca, 0xff, 0xff, 0xff,
  0x14, 0x00, 0x00, 0x00, 0x00, 0x00, 0x00, 0x08, 0x10, 0x00, 0x00, 0x00,
  0x14, 0x00, 0x00, 0x00, 0x02, 0x00, 0x00, 0x00, 0x24, 0xf1, 0xff, 0xff,
  0x01, 0x00, 0x00, 0x00, 0x0e, 0x00, 0x00, 0x00, 0x03, 0x00, 0x00, 0x00,
  0x0d, 0x00, 0x00, 0x00, 0x03, 0x00, 0x00, 0x00, 0x02, 0x00, 0x00, 0x00,
  0x00, 0x00, 0x0e, 0x00, 0x18, 0x00, 0x14, 0x00, 0x10, 0x00, 0x0c, 0x00,
  0x0b, 0x00, 0x04, 0x00, 0x0e, 0x00, 0x00, 0x00, 0x14, 0x00, 0x00, 0x00,
  0x00, 0x00, 0x00, 0x1b, 0x10, 0x00, 0x00, 0x00, 0x14, 0x00, 0x00, 0x00,
  0x01, 0x00, 0x00, 0x00, 0x68, 0xf1, 0xff, 0xff, 0x01, 0x00, 0x00, 0x00,
  0x0d, 0x00, 0x00, 0x00, 0x02, 0x00, 0x00, 0x00, 0x0c, 0x00, 0x00, 0x00,
  0x01, 0x00, 0x00, 0x00, 0x86, 0xff, 0xff, 0xff, 0x10, 0x00, 0x00, 0x00,
  0x00, 0x00, 0x00, 0x01, 0x18, 0x00, 0x00, 0x00, 0x1c, 0x00, 0x00, 0x00,
  0x78, 0xff, 0xff, 0xff, 0x00, 0x00, 0x00, 0x01, 0x02, 0x00, 0x00, 0x00,
  0x02, 0x00, 0x00, 0x00, 0x01, 0x00, 0x00, 0x00, 0x0c, 0x00, 0x00, 0x00,
  0x03, 0x00, 0x00, 0x00, 0x0b, 0x00, 0x00, 0x00, 0x05, 0x00, 0x00, 0x00,
  0x04, 0x00, 0x00, 0x00, 0xc2, 0xff, 0xff, 0xff, 0x10, 0x00, 0x00, 0x00,
  0x00, 0x00, 0x00, 0x01, 0x18, 0x00, 0x00, 0x00, 0x1c, 0x00, 0x00, 0x00,
  0xb4, 0xff, 0xff, 0xff, 0x00, 0x00, 0x00, 0x01, 0x02, 0x00, 0x00, 0x00,
  0x02, 0x00, 0x00, 0x00, 0x01, 0x00, 0x00, 0x00, 0x0b, 0x00, 0x00, 0x00,
  0x03, 0x00, 0x00, 0x00, 0x0a, 0x00, 0x00, 0x00, 0x07, 0x00, 0x00, 0x00,
  0x06, 0x00, 0x00, 0x00, 0x00, 0x00, 0x0e, 0x00, 0x14, 0x00, 0x00, 0x00,
  0x10, 0x00, 0x0c, 0x00, 0x0b, 0x00, 0x04, 0x00, 0x0e, 0x00, 0x00, 0x00,
  0x1c, 0x00, 0x00, 0x00, 0x00, 0x00, 0x00, 0x01, 0x24, 0x00, 0x00, 0x00,
  0x28, 0x00, 0x00, 0x00, 0x0c, 0x00, 0x10, 0x00, 0x00, 0x00, 0x0c, 0x00,
  0x08, 0x00, 0x07, 0x00, 0x0c, 0x00, 0x00, 0x00, 0x00, 0x00, 0x00, 0x01,
  0x02, 0x00, 0x00, 0x00, 0x02, 0x00, 0x00, 0x00, 0x01, 0x00, 0x00, 0x00,
  0x0a, 0x00, 0x00, 0x00, 0x03, 0x00, 0x00, 0x00, 0x00, 0x00, 0x00, 0x00,
  0x09, 0x00, 0x00, 0x00, 0x08, 0x00, 0x00, 0x00, 0x01, 0x00, 0x00, 0x00,
  0x0f, 0x00, 0x00, 0x00, 0x01, 0x00, 0x00, 0x00, 0x00, 0x00, 0x00, 0x00,
  0x10, 0x00, 0x00, 0x00, 0x04, 0x0e, 0x00, 0x00, 0x7c, 0x0d, 0x00, 0x00,
  0xf0, 0x0c, 0x00, 0x00, 0x84, 0x0c, 0x00, 0x00, 0x98, 0x0a, 0x00, 0x00,
  0xac, 0x08, 0x00, 0x00, 0x80, 0x07, 0x00, 0x00, 0x54, 0x06, 0x00, 0x00,
  0x88, 0x05, 0x00, 0x00, 0x64, 0x04, 0x00, 0x00, 0x78, 0x03, 0x00, 0x00,
  0x8c, 0x02, 0x00, 0x00, 0xa0, 0x01, 0x00, 0x00, 0x14, 0x01, 0x00, 0x00,
  0x80, 0x00, 0x00, 0x00, 0x04, 0x00, 0x00, 0x00, 0x52, 0xf2, 0xff, 0xff,
  0x00, 0x00, 0x00, 0x01, 0x18, 0x00, 0x00, 0x00, 0x20, 0x00, 0x00, 0x00,
  0x3c, 0x00, 0x00, 0x00, 0x10, 0x00, 0x00, 0x00, 0x00, 0x00, 0x00, 0x09,
  0x50, 0x00, 0x00, 0x00, 0x02, 0x00, 0x00, 0x00, 0xff, 0xff, 0xff, 0xff,
  0x05, 0x00, 0x00, 0x00, 0x34, 0xf2, 0xff, 0xff, 0x08, 0x00, 0x00, 0x00,
  0x10, 0x00, 0x00, 0x00, 0x01, 0x00, 0x00, 0x00, 0x80, 0xff, 0xff, 0xff,
  0xff, 0xff, 0xff, 0xff, 0x01, 0x00, 0x00, 0x00, 0x00, 0x00, 0x80, 0x3b,
  0x19, 0x00, 0x00, 0x00, 0x53, 0x74, 0x61, 0x74, 0x65, 0x66, 0x75, 0x6c,
  0x50, 0x61, 0x72, 0x74, 0x69, 0x74, 0x69, 0x6f, 0x6e, 0x65, 0x64, 0x43,
  0x61, 0x6c, 0x6c, 0x3a, 0x30, 0x00, 0x00, 0x00, 0x02, 0x00, 0x00, 0x00,
  0x01, 0x00, 0x00, 0x00, 0x05, 0x00, 0x00, 0x00, 0xca, 0xf2, 0xff, 0xff,
  0x00, 0x00, 0x00, 0x01, 0x18, 0x00, 0x00, 0x00, 0x20, 0x00, 0x00, 0x00,
  0x40, 0x00, 0x00, 0x00, 0x0f, 0x00, 0x00, 0x00, 0x00, 0x00, 0x00, 0x09,
  0x68, 0x00, 0x00, 0x00, 0x02, 0x00, 0x00, 0x00, 0xff, 0xff, 0xff, 0xff,
  0x05, 0x00, 0x00, 0x00, 0xac, 0xf2, 0xff, 0xff, 0x08, 0x00, 0x00, 0x00,
  0x14, 0x00, 0x00, 0x00, 0x01, 0x00, 0x00, 0x00, 0x24, 0x00, 0x00, 0x00,
  0x00, 0x00, 0x00, 0x00, 0x00, 0x00, 0x00, 0x00, 0x01, 0x00, 0x00, 0x00,
  0xbe, 0x7b, 0x0c, 0x3e, 0x2e, 0x00, 0x00, 0x00, 0x6d, 0x6f, 0x64, 0x65,
  0x6c, 0x5f, 0x35, 0x2f, 0x64, 0x65, 0x6e, 0x73, 0x65, 0x5f, 0x36, 0x2f,
  0x4d, 0x61, 0x74, 0x4d, 0x75, 0x6c, 0x3b, 0x6d, 0x6f, 0x64, 0x65, 0x6c,
  0x5f, 0x35, 0x2f, 0x64, 0x65, 0x6e, 0x73, 0x65, 0x5f, 0x36, 0x2f, 0x42,
  0x69, 0x61, 0x73, 0x41, 0x64, 0x64, 0x00, 0x00, 0x02, 0x00, 0x00, 0x00,
  0x01, 0x00, 0x00, 0x00, 0x05, 0x00, 0x00, 0x00, 0x5a, 0xf3, 0xff, 0xff,
  0x00, 0x00, 0x00, 0x01, 0x18, 0x00, 0x00, 0x00, 0x20, 0x00, 0x00, 0x00,
  0x40, 0x00, 0x00, 0x00, 0x0e, 0x00, 0x00, 0x00, 0x00, 0x00, 0x00, 0x09,
  0x60, 0x00, 0x00, 0x00, 0x02, 0x00, 0x00, 0x00, 0xff, 0xff, 0xff, 0xff,
  0x20, 0x00, 0x00, 0x00, 0x3c, 0xf3, 0xff, 0xff, 0x08, 0x00, 0x00, 0x00,
  0x14, 0x00, 0x00, 0x00, 0x01, 0x00, 0x00, 0x00, 0x80, 0xff, 0xff, 0xff,
  0xff, 0xff, 0xff, 0xff, 0x00, 0x00, 0x00, 0x00, 0x01, 0x00, 0x00, 0x00,
  0xaf, 0xda, 0xe8, 0x3c, 0x27, 0x00, 0x00, 0x00, 0x6d, 0x6f, 0x64, 0x65,
  0x6c, 0x5f, 0x35, 0x2f, 0x67, 0x6c, 0x6f, 0x62, 0x61, 0x6c, 0x5f, 0x61,
  0x76, 0x65, 0x72, 0x61, 0x67, 0x65, 0x5f, 0x70, 0x6f, 0x6f, 0x6c, 0x69,
  0x6e, 0x67, 0x32, 0x64, 0x5f, 0x32, 0x2f, 0x4d, 0x65, 0x61, 0x6e, 0x00,
  0x02, 0x00, 0x00, 0x00, 0x01, 0x00, 0x00, 0x00, 0x20, 0x00, 0x00, 0x00,
  0xe2, 0xf3, 0xff, 0xff, 0x00, 0x00, 0x00, 0x01, 0x18, 0x00, 0x00, 0x00,
  0x28, 0x00, 0x00, 0x00, 0x48, 0x00, 0x00, 0x00, 0x0d, 0x00, 0x00, 0x00,
  0x00, 0x00, 0x00, 0x09, 0xb8, 0x00, 0x00, 0x00, 0x04, 0x00, 0x00, 0x00,
  0xff, 0xff, 0xff, 0xff, 0x04, 0x00, 0x00, 0x00, 0x04, 0x00, 0x00, 0x00,
  0x20, 0x00, 0x00, 0x00, 0xcc, 0xf3, 0xff, 0xff, 0x08, 0x00, 0x00, 0x00,
  0x14, 0x00, 0x00, 0x00, 0x01, 0x00, 0x00, 0x00, 0x80, 0xff, 0xff, 0xff,
  0xff, 0xff, 0xff, 0xff, 0x00, 0x00, 0x00, 0x00, 0x01, 0x00, 0x00, 0x00,
  0x57, 0xc9, 0x16, 0x3e, 0x76, 0x00, 0x00, 0x00, 0x6d, 0x6f, 0x64, 0x65,
  0x6c, 0x5f, 0x35, 0x2f, 0x61, 0x63, 0x74, 0x69, 0x76, 0x61, 0x74, 0x69,
  0x6f, 0x6e, 0x5f, 0x31, 0x35, 0x2f, 0x52, 0x65, 0x6c, 0x75, 0x3b, 0x6d,
  0x6f, 0x64, 0x65, 0x6c, 0x5f, 0x35, 0x2f, 0x63, 0x6f, 0x6e, 0x76, 0x32,
  0x64, 0x5f, 0x31, 0x35, 0x2f, 0x42, 0x69, 0x61, 0x73, 0x41, 0x64, 0x64,
  0x3b, 0x6d, 0x6f, 0x64, 0x65, 0x6c, 0x5f, 0x35, 0x2f, 0x63, 0x6f, 0x6e,
  0x76, 0x32, 0x64, 0x5f, 0x31, 0x35, 0x2f, 0x43, 0x6f, 0x6e, 0x76, 0x32,
  0x44, 0x3b, 0x6d, 0x6f, 0x64, 0x65, 0x6c, 0x5f, 0x35, 0x2f, 0x63, 0x6f,
  0x6e, 0x76, 0x32, 0x64, 0x5f, 0x31, 0x35, 0x2f, 0x42, 0x69, 0x61, 0x73,
  0x41, 0x64, 0x64, 0x2f, 0x52, 0x65, 0x61, 0x64, 0x56, 0x61, 0x72, 0x69,
  0x61, 0x62, 0x6c, 0x65, 0x4f, 0x70, 0x00, 0x00, 0x04, 0x00, 0x00, 0x00,
  0x01, 0x00, 0x00, 0x00, 0x04, 0x00, 0x00, 0x00, 0x04, 0x00, 0x00, 0x00,
  0x20, 0x00, 0x00, 0x00, 0xca, 0xf4, 0xff, 0xff, 0x00, 0x00, 0x00, 0x01,
  0x18, 0x00, 0x00, 0x00, 0x28, 0x00, 0x00, 0x00, 0x48, 0x00, 0x00, 0x00,
  0x0c, 0x00, 0x00, 0x00, 0x00, 0x00, 0x00, 0x09, 0xb8, 0x00, 0x00, 0x00,
  0x04, 0x00, 0x00, 0x00, 0xff, 0xff, 0xff, 0xff, 0x08, 0x00, 0x00, 0x00,
  0x08, 0x00, 0x00, 0x00, 0x10, 0x00, 0x00, 0x00, 0xb4, 0xf4, 0xff, 0xff,
  0x08, 0x00, 0x00, 0x00, 0x14, 0x00, 0x00, 0x00, 0x01, 0x00, 0x00, 0x00,
  0x80, 0xff, 0xff, 0xff, 0xff, 0xff, 0xff, 0xff, 0x00, 0x00, 0x00, 0x00,
  0x01, 0x00, 0x00, 0x00, 0x82, 0xd6, 0x85, 0x3d, 0x76, 0x00, 0x00, 0x00,
  0x6d, 0x6f, 0x64, 0x65, 0x6c, 0x5f, 0x35, 0x2f, 0x61, 0x63, 0x74, 0x69,
  0x76, 0x61, 0x74, 0x69, 0x6f, 0x6e, 0x5f, 0x31, 0x34, 0x2f, 0x52, 0x65,
  0x6c, 0x75, 0x3b, 0x6d, 0x6f, 0x64, 0x65, 0x6c, 0x5f, 0x35, 0x2f, 0x63,
  0x6f, 0x6e, 0x76, 0x32, 0x64, 0x5f, 0x31, 0x34, 0x2f, 0x42, 0x69, 0x61,
  0x73, 0x41, 0x64, 0x64, 0x3b, 0x6d, 0x6f, 0x64, 0x65, 0x6c, 0x5f, 0x35,
  0x2f, 0x63, 0x6f, 0x6e, 0x76, 0x32, 0x64, 0x5f, 0x31, 0x34, 0x2f, 0x43,
  0x6f, 0x6e, 0x76, 0x32, 0x44, 0x3b, 0x6d, 0x6f, 0x64, 0x65, 0x6c, 0x5f,
  0x35, 0x2f, 0x63, 0x6f, 0x6e, 0x76, 0x32, 0x64, 0x5f, 0x31, 0x34, 0x2f,
  0x42, 0x69, 0x61, 0x73, 0x41, 0x64, 0x64, 0x2f, 0x52, 0x65, 0x61, 0x64,
  0x56, 0x61, 0x72, 0x69, 0x61, 0x62, 0x6c, 0x65, 0x4f, 0x70, 0x00, 0x00,
  0x04, 0x00, 0x00, 0x00, 0x01, 0x00, 0x00, 0x00, 0x08, 0x00, 0x00, 0x00,
  0x08, 0x00, 0x00, 0x00, 0x10, 0x00, 0x00, 0x00, 0xb2, 0xf5, 0xff, 0xff,
  0x00, 0x00, 0x00, 0x01, 0x18, 0x00, 0x00, 0x00, 0x28, 0x00, 0x00, 0x00,
  0x48, 0x00, 0x00, 0x00, 0x0b, 0x00, 0x00, 0x00, 0x00, 0x00, 0x00, 0x09,
  0xb8, 0x00, 0x00, 0x00, 0x04, 0x00, 0x00, 0x00, 0xff, 0xff, 0xff, 0xff,
  0x10, 0x00, 0x00, 0x00, 0x10, 0x00, 0x00, 0x00, 0x08, 0x00, 0x00, 0x00,
  0x9c, 0xf5, 0xff, 0xff, 0x08, 0x00, 0x00, 0x00, 0x14, 0x00, 0x00, 0x00,
  0x01, 0x00, 0x00, 0x00, 0x80, 0xff, 0xff, 0xff, 0xff, 0xff, 0xff, 0xff,
  0x00, 0x00, 0x00, 0x00, 0x01, 0x00, 0x00, 0x00, 0x0d, 0x93, 0xba, 0x3c,
  0x77, 0x00, 0x00, 0x00, 0x6d, 0x6f, 0x64, 0x65, 0x6c, 0x5f, 0x35, 0x2f,
  0x61, 0x63, 0x74, 0x69, 0x76, 0x61, 0x74, 0x69, 0x6f, 0x6e, 0x5f, 0x31,
  0x33, 0x2f, 0x52, 0x65, 0x6c, 0x75, 0x3b, 0x6d, 0x6f, 0x64, 0x65, 0x6c,
  0x5f, 0x35, 0x2f, 0x63, 0x6f, 0x6e, 0x76, 0x32, 0x64, 0x5f, 0x31, 0x33,
  0x2f, 0x42, 0x69, 0x61, 0x73, 0x41, 0x64, 0x64, 0x3b, 0x6d, 0x6f, 0x64,
  0x65, 0x6c, 0x5f, 0x35, 0x2f, 0x63, 0x6f, 0x6e, 0x76, 0x32, 0x64, 0x5f,
  0x31, 0x33, 0x2f, 0x43, 0x6f, 0x6e, 0x76, 0x32, 0x44, 0x3b, 0x6d, 0x6f,
  0x64, 0x65, 0x6c, 0x5f, 0x35, 0x2f, 0x63, 0x6f, 0x6e, 0x76, 0x32, 0x64,
  0x5f, 0x31, 0x33, 0x2f, 0x42, 0x69, 0x61, 0x73, 0x41, 0x64, 0x64, 0x2f,
  0x52, 0x65, 0x61, 0x64, 0x56, 0x61, 0x72, 0x69, 0x61, 0x62, 0x6c, 0x65,
  0x4f, 0x70, 0x31, 0x00, 0x04, 0x00, 0x00, 0x00, 0x01, 0x00, 0x00, 0x00,
  0x10, 0x00, 0x00, 0x00, 0x10, 0x00, 0x00, 0x00, 0x08, 0x00, 0x00, 0x00,
  0x1e, 0xf7, 0xff, 0xff, 0x00, 0x00, 0x00, 0x01, 0x14, 0x00, 0x00, 0x00,
  0x84, 0x00, 0x00, 0x00, 0x0a, 0x00, 0x00, 0x00, 0x00, 0x00, 0x00, 0x09,
  0xf4, 0x00, 0x00, 0x00, 0x6c, 0xf6, 0xff, 0xff, 0x08, 0x00, 0x00, 0x00,
  0x48, 0x00, 0x00, 0x00, 0x08, 0x00, 0x00, 0x00, 0x00, 0x00, 0x00, 0x00,
  0x00, 0x00, 0x00, 0x00, 0x00, 0x00, 0x00, 0x00, 0x00, 0x00, 0x00, 0x00,
  0x00, 0x00, 0x00, 0x00, 0x00, 0x00, 0x00, 0x00, 0x00, 0x00, 0x00, 0x00,
  0x00, 0x00, 0x00, 0x00, 0x00, 0x00, 0x00, 0x00, 0x00, 0x00, 0x00, 0x00,
  0x00, 0x00, 0x00, 0x00, 0x00, 0x00, 0x00, 0x00, 0x00, 0x00, 0x00, 0x00,
  0x00, 0x00, 0x00, 0x00, 0x00, 0x00, 0x00, 0x00, 0x00, 0x00, 0x00, 0x00,
  0x08, 0x00, 0x00, 0x00, 0xd6, 0xf5, 0x59, 0x38, 0xf3, 0xcd, 0x71, 0x38,
  0x7c, 0x22, 0x68, 0x38, 0x8a, 0x9c, 0x7d, 0x38, 0x56, 0x8d, 0x85, 0x38,
  0x71, 0xf8, 0xac, 0x38, 0x14, 0x71, 0x90, 0x38, 0xf8, 0x73, 0x4f, 0x38,
  0x76, 0x00, 0x00, 0x00, 0x6d, 0x6f, 0x64, 0x65, 0x6c, 0x5f, 0x35, 0x2f,
  0x61, 0x63, 0x74, 0x69, 0x76, 0x61, 0x74, 0x69, 0x6f, 0x6e, 0x5f, 0x31,
  0x33, 0x2f, 0x52, 0x65, 0x6c, 0x75, 0x3b, 0x6d, 0x6f, 0x64, 0x65, 0x6c,
  0x5f, 0x35, 0x2f, 0x63, 0x6f, 0x6e, 0x76, 0x32, 0x64, 0x5f, 0x31, 0x33,
  0x2f, 0x42, 0x69, 0x61, 0x73, 0x41, 0x64, 0x64, 0x3b, 0x6d, 0x6f, 0x64,
  0x65, 0x6c, 0x5f, 0x35, 0x2f, 0x63, 0x6f, 0x6e, 0x76, 0x32, 0x64, 0x5f,
  0x31, 0x33, 0x2f, 0x43, 0x6f, 0x6e, 0x76, 0x32, 0x44, 0x3b, 0x6d, 0x6f,
  0x64, 0x65, 0x6c, 0x5f, 0x35, 0x2f, 0x63, 0x6f, 0x6e, 0x76, 0x32, 0x64,
  0x5f, 0x31, 0x33, 0x2f, 0x42, 0x69, 0x61, 0x73, 0x41, 0x64, 0x64, 0x2f,
  0x52, 0x65, 0x61, 0x64, 0x56, 0x61, 0x72, 0x69, 0x61, 0x62, 0x6c, 0x65,
  0x4f, 0x70, 0x00, 0x00, 0x04, 0x00, 0x00, 0x00, 0x08, 0x00, 0x00, 0x00,
  0x03, 0x00, 0x00, 0x00, 0x03, 0x00, 0x00, 0x00, 0x03, 0x00, 0x00, 0x00,
  0x3e, 0xf8, 0xff, 0xff, 0x00, 0x00, 0x00, 0x01, 0x14, 0x00, 0x00, 0x00,
  0x84, 0x00, 0x00, 0x00, 0x09, 0x00, 0x00, 0x00, 0x00, 0x00, 0x00, 0x02,
  0xa8, 0x00, 0x00, 0x00, 0x8c, 0xf7, 0xff, 0xff, 0x08, 0x00, 0x00, 0x00,
  0x48, 0x00, 0x00, 0x00, 0x08, 0x00, 0x00, 0x00, 0x00, 0x00, 0x00, 0x00,
  0x00, 0x00, 0x00, 0x00, 0x00, 0x00, 0x00, 0x00, 0x00, 0x00, 0x00, 0x00,
  0x00, 0x00, 0x00, 0x00, 0x00, 0x00, 0x00, 0x00, 0x00, 0x00, 0x00, 0x00,
  0x00, 0x00, 0x00, 0x00, 0x00, 0x00, 0x00, 0x00, 0x00, 0x00, 0x00, 0x00,
  0x00, 0x00, 0x00, 0x00, 0x00, 0x00, 0x00, 0x00, 0x00, 0x00, 0x00, 0x00,
  0x00, 0x00, 0x00, 0x00, 0x00, 0x00, 0x00, 0x00, 0x00, 0x00, 0x00, 0x00,
  0x08, 0x00, 0x00, 0x00, 0xd6, 0xf5, 0x59, 0x38, 0xf3, 0xcd, 0x71, 0x38,
  0x7c, 0x22, 0x68, 0x38, 0x8a, 0x9c, 0x7d, 0x38, 0x56, 0x8d, 0x85, 0x38,
  0x71, 0xf8, 0xac, 0x38, 0x14, 0x71, 0x90, 0x38, 0xf8, 0x73, 0x4f, 0x38,
  0x28, 0x00, 0x00, 0x00, 0x6d, 0x6f, 0x64, 0x65, 0x6c, 0x5f, 0x35, 0x2f,
  0x63, 0x6f, 0x6e, 0x76, 0x32, 0x64, 0x5f, 0x31, 0x33, 0x2f, 0x42, 0x69,
  0x61, 0x73, 0x41, 0x64, 0x64, 0x2f, 0x52, 0x65, 0x61, 0x64, 0x56, 0x61,
  0x72, 0x69, 0x61, 0x62, 0x6c, 0x65, 0x4f, 0x70, 0x00, 0x00, 0x00, 0x00,
  0x01, 0x00, 0x00, 0x00, 0x08, 0x00, 0x00, 0x00, 0x06, 0xf9, 0xff, 0xff,
  0x00, 0x00, 0x00, 0x01, 0x14, 0x00, 0x00, 0x00, 0xe8, 0x00, 0x00, 0x00,
  0x08, 0x00, 0x00, 0x00, 0x00, 0x00, 0x00, 0x09, 0xfc, 0x00, 0x00, 0x00,
  0x54, 0xf8, 0xff, 0xff, 0x08, 0x00, 0x00, 0x00, 0x8c, 0x00, 0x00, 0x00,
  0x10, 0x00, 0x00, 0x00, 0x00, 0x00, 0x00, 0x00, 0x00, 0x00, 0x00, 0x00,
  0x00, 0x00, 0x00, 0x00, 0x00, 0x00, 0x00, 0x00, 0x00, 0x00, 0x00, 0x00,
  0x00, 0x00, 0x00, 0x00, 0x00, 0x00, 0x00, 0x00, 0x00, 0x00, 0x00, 0x00,
  0x00, 0x00, 0x00, 0x00, 0x00, 0x00, 0x00, 0x00, 0x00, 0x00, 0x00, 0x00,
  0x00, 0x00, 0x00, 0x00, 0x00, 0x00, 0x00, 0x00, 0x00, 0x00, 0x00, 0x00,
  0x00, 0x00, 0x00, 0x00, 0x00, 0x00, 0x00, 0x00, 0x00, 0x00, 0x00, 0x00,
  0x00, 0x00, 0x00, 0x00, 0x00, 0x00, 0x00, 0x00, 0x00, 0x00, 0x00, 0x00,
  0x00, 0x00, 0x00, 0x00, 0x00, 0x00, 0x00, 0x00, 0x00, 0x00, 0x00, 0x00,
  0x00, 0x00, 0x00, 0x00, 0x00, 0x00, 0x00, 0x00, 0x00, 0x00, 0x00, 0x00,
  0x00, 0x00, 0x00, 0x00, 0x00, 0x00, 0x00, 0x00, 0x00, 0x00, 0x00, 0x00,
  0x00, 0x00, 0x00, 0x00, 0x00, 0x00, 0x00, 0x00, 0x00, 0x00, 0x00, 0x00,
  0x00, 0x00, 0x00, 0x00, 0x10, 0x00, 0x00, 0x00, 0xda, 0x62, 0x46, 0x3c,
  0x32, 0x95, 0x5b, 0x3c, 0x5d, 0x43, 0x94, 0x3b, 0x93, 0x1d, 0x4b, 0x3c,
  0x4d, 0x32, 0x33, 0x3c, 0x3d, 0xfd, 0x24, 0x3c, 0xf2, 0x08, 0xb1, 0x3b,
  0xf6, 0x7c, 0xc4, 0x3b, 0x86, 0xae, 0xb9, 0x3b, 0x68, 0x79, 0xa6, 0x3b,
  0x99, 0x2d, 0x0e, 0x3c, 0xbb, 0xc5, 0x76, 0x3c, 0x78, 0x5b, 0x57, 0x3c,
  0x7c, 0x91, 0x78, 0x3c, 0xe2, 0xc1, 0x95, 0x3b, 0x6c, 0xdd, 0xda, 0x3b,
  0x18, 0x00, 0x00, 0x00, 0x6d, 0x6f, 0x64, 0x65, 0x6c, 0x5f, 0x35, 0x2f,
  0x63, 0x6f, 0x6e, 0x76, 0x32, 0x64, 0x5f, 0x31, 0x34, 0x2f, 0x43, 0x6f,
  0x6e, 0x76, 0x32, 0x44, 0x00, 0x00, 0x00, 0x00, 0x04, 0x00, 0x00, 0x00,
  0x10, 0x00, 0x00, 0x00, 0x03, 0x00, 0x00, 0x00, 0x03, 0x00, 0x00, 0x00,
  0x08, 0x00, 0x00, 0x00, 0x2e, 0xfa, 0xff, 0xff, 0x00, 0x00, 0x00, 0x01,
  0x14, 0x00, 0x00, 0x00, 0xe4, 0x00, 0x00, 0x00, 0x07, 0x00, 0x00, 0x00,
  0x00, 0x00, 0x00, 0x02, 0x08, 0x01, 0x00, 0x00, 0x7c, 0xf9, 0xff, 0xff,
  0x08, 0x00, 0x00, 0x00, 0x88, 0x00, 0x00, 0x00, 0x10, 0x00, 0x00, 0x00,
  0x00, 0x00, 0x00, 0x00, 0x00, 0x00, 0x00, 0x00, 0x00, 0x00, 0x00, 0x00,
  0x00, 0x00, 0x00, 0x00, 0x00, 0x00, 0x00, 0x00, 0x00, 0x00, 0x00, 0x00,
  0x00, 0x00, 0x00, 0x00, 0x00, 0x00, 0x00, 0x00, 0x00, 0x00, 0x00, 0x00,
  0x00, 0x00, 0x00, 0x00, 0x00, 0x00, 0x00, 0x00, 0x00, 0x00, 0x00, 0x00,
  0x00, 0x00, 0x00, 0x00, 0x00, 0x00, 0x00, 0x00, 0x00, 0x00, 0x00, 0x00,
  0x00, 0x00, 0x00, 0x00, 0x00, 0x00, 0x00, 0x00, 0x00, 0x00, 0x00, 0x00,
  0x00, 0x00, 0x00, 0x00, 0x00, 0x00, 0x00, 0x00, 0x00, 0x00, 0x00, 0x00,
  0x00, 0x00, 0x00, 0x00, 0x00, 0x00, 0x00, 0x00, 0x00, 0x00, 0x00, 0x00,
  0x00, 0x00, 0x00, 0x00, 0x00, 0x00, 0x00, 0x00, 0x00, 0x00, 0x00, 0x00,
  0x00, 0x00, 0x00, 0x00, 0x00, 0x00, 0x00, 0x00, 0x00, 0x00, 0x00, 0x00,
  0x00, 0x00, 0x00, 0x00, 0x00, 0x00, 0x00, 0x00, 0x10, 0x00, 0x00, 0x00,
  0xc7, 0x95, 0x90, 0x39, 0x88, 0x08, 0xa0, 0x39, 0x38, 0x1c, 0xd8, 0x38,
  0x29, 0x08, 0x94, 0x39, 0x7b, 0x99, 0x82, 0x39, 0x88, 0x7d, 0x70, 0x39,
  0x31, 0x06, 0x01, 0x39, 0xa8, 0x33, 0x0f, 0x39, 0x76, 0x53, 0x07, 0x39,
  0xab, 0xa7, 0xf2, 0x38, 0x99, 0x3d, 0x4f, 0x39, 0x6a, 0xd9, 0xb3, 0x39,
  0x2a, 0xf4, 0x9c, 0x39, 0x7c, 0x28, 0xb5, 0x39, 0xc8, 0x49, 0xda, 0x38,
  0x99, 0x82, 0x1f, 0x39, 0x28, 0x00, 0x00, 0x00, 0x6d, 0x6f, 0x64, 0x65,
  0x6c, 0x5f, 0x35, 0x2f, 0x63, 0x6f, 0x6e, 0x76, 0x32, 0x64, 0x5f, 0x31,
  0x34, 0x2f, 0x42, 0x69, 0x61, 0x73, 0x41, 0x64, 0x64, 0x2f, 0x52, 0x65,
  0x61, 0x64, 0x56, 0x61, 0x72, 0x69, 0x61, 0x62, 0x6c, 0x65, 0x4f, 0x70,
  0x00, 0x00, 0x00, 0x00, 0x01, 0x00, 0x00, 0x00, 0x10, 0x00, 0x00, 0x00,
  0x56, 0xfb, 0xff, 0xff, 0x00, 0x00, 0x00, 0x01, 0x14, 0x00, 0x00, 0x00,
  0xa8, 0x01, 0x00, 0x00, 0x06, 0x00, 0x00, 0x00, 0x00, 0x00, 0x00, 0x09,
  0xbc, 0x01, 0x00, 0x00, 0xa4, 0xfa, 0xff, 0xff, 0x08, 0x00, 0x00, 0x00,
  0x0c, 0x01, 0x00, 0x00, 0x20, 0x00, 0x00, 0x00, 0x00, 0x00, 0x00, 0x00,
  0x00, 0x00, 0x00, 0x00, 0x00, 0x00, 0x00, 0x00, 0x00, 0x00, 0x00, 0x00,
  0x00, 0x00, 0x00, 0x00, 0x00, 0x00, 0x00, 0x00, 0x00, 0x00, 0x00, 0x00,
  0x00, 0x00, 0x00, 0x00, 0x00, 0x00, 0x00, 0x00, 0x00, 0x00, 0x00, 0x00,
  0x00, 0x00, 0x00, 0x00, 0x00, 0x00, 0x00, 0x00, 0x00, 0x00, 0x00, 0x00,
  0x00, 0x00, 0x00, 0x00, 0x00, 0x00, 0x00, 0x00, 0x00, 0x00, 0x00, 0x00,
  0x00, 0x00, 0x00, 0x00, 0x00, 0x00, 0x00, 0x00, 0x00, 0x00, 0x00, 0x00,
  0x00, 0x00, 0x00, 0x00, 0x00, 0x00, 0x00, 0x00, 0x00, 0x00, 0x00, 0x00,
  0x00, 0x00, 0x00, 0x00, 0x00, 0x00, 0x00, 0x00, 0x00, 0x00, 0x00, 0x00,
  0x00, 0x00, 0x00, 0x00, 0x00, 0x00, 0x00, 0x00, 0x00, 0x00, 0x00, 0x00,
  0x00, 0x00, 0x00, 0x00, 0x00, 0x00, 0x00, 0x00, 0x00, 0x00, 0x00, 0x00,
  0x00, 0x00, 0x00, 0x00, 0x00, 0x00, 0x00, 0x00, 0x00, 0x00, 0x00, 0x00,
  0x00, 0x00, 0x00, 0x00, 0x00, 0x00, 0x00, 0x00, 0x00, 0x00, 0x00, 0x00,
  0x00, 0x00, 0x00, 0x00, 0x00, 0x00, 0x00, 0x00, 0x00, 0x00, 0x00, 0x00,
  0x00, 0x00, 0x00, 0x00, 0x00, 0x00, 0x00, 0x00, 0x00, 0x00, 0x00, 0x00,
  0x00, 0x00, 0x00, 0x00, 0x00, 0x00, 0x00, 0x00, 0x00, 0x00, 0x00, 0x00,
  0x00, 0x00, 0x00, 0x00, 0x00, 0x00, 0x00, 0x00, 0x00, 0x00, 0x00, 0x00,
  0x00, 0x00, 0x00, 0x00, 0x00, 0x00, 0x00, 0x00, 0x00, 0x00, 0x00, 0x00,
  0x00, 0x00, 0x00, 0x00, 0x00, 0x00, 0x00, 0x00, 0x00, 0x00, 0x00, 0x00,
  0x00, 0x00, 0x00, 0x00, 0x00, 0x00, 0x00, 0x00, 0x00, 0x00, 0x00, 0x00,
  0x00, 0x00, 0x00, 0x00, 0x00, 0x00, 0x00, 0x00, 0x00, 0x00, 0x00, 0x00,
  0x00, 0x00, 0x00, 0x00, 0x00, 0x00, 0x00, 0x00, 0x00, 0x00, 0x00, 0x00,
  0x00, 0x00, 0x00, 0x00, 0x20, 0x00, 0x00, 0x00, 0xd7, 0x23, 0x29, 0x3c,
  0x1f, 0xa3, 0x12, 0x3c, 0x34, 0x72, 0x23, 0x3c, 0xc1, 0xf7, 0xbc, 0x3b,
  0xf2, 0xfd, 0x1d, 0x3c, 0x28, 0xa2, 0x25, 0x3c, 0x79, 0x75, 0x18, 0x3c,
  0xc1, 0x69, 0x87, 0x3b, 0x00, 0x9f, 0x08, 0x3c, 0xa2, 0xe6, 0xf1, 0x3b,
  0xa3, 0x72, 0x01, 0x3c, 0x78, 0xc5, 0x51, 0x3c, 0x3a, 0xf2, 0x04, 0x3c,
  0x95, 0x9f, 0xaa, 0x3b, 0x11, 0xd9, 0x66, 0x3b, 0xc2, 0x27, 0xe7, 0x3b,
  0xd8, 0x36, 0x18, 0x3c, 0xb1, 0xe6, 0x35, 0x3c, 0x56, 0x68, 0xbd, 0x3b,
  0xfd, 0x6a, 0x17, 0x3c, 0xb5, 0x14, 0x40, 0x3c, 0x8f, 0x89, 0xf9, 0x3b,
  0xda, 0xbd, 0xf1, 0x3b, 0x94, 0xd4, 0x02, 0x3c, 0x61, 0xfa, 0xfd, 0x3b,
  0xb8, 0x90, 0x9c, 0x3b, 0x44, 0x73, 0xa5, 0x3b, 0xec, 0x80, 0x03, 0x3c,
  0xdc, 0x73, 0x28, 0x3c, 0xaa, 0xb8, 0x4a, 0x3c, 0xf3, 0xe4, 0x46, 0x3c,
  0x6e, 0x4f, 0xf1, 0x3b, 0x18, 0x00, 0x00, 0x00, 0x6d, 0x6f, 0x64, 0x65,
  0x6c, 0x5f, 0x35, 0x2f, 0x63, 0x6f, 0x6e, 0x76, 0x32, 0x64, 0x5f, 0x31,
  0x35, 0x2f, 0x43, 0x6f, 0x6e, 0x76, 0x32, 0x44, 0x00, 0x00, 0x00, 0x00,
  0x04, 0x00, 0x00, 0x00, 0x20, 0x00, 0x00, 0x00, 0x03, 0x00, 0x00, 0x00,
  0x03, 0x00, 0x00, 0x00, 0x10, 0x00, 0x00, 0x00, 0x3e, 0xfd, 0xff, 0xff,
  0x00, 0x00, 0x00, 0x01, 0x14, 0x00, 0x00, 0x00, 0xa4, 0x01, 0x00, 0x00,
  0x05, 0x00, 0x00, 0x00, 0x00, 0x00, 0x00, 0x02, 0xc8, 0x01, 0x00, 0x00,
  0x8c, 0xfc, 0xff, 0xff, 0x08, 0x00, 0x00, 0x00, 0x08, 0x01, 0x00, 0x00,
  0x20, 0x00, 0x00, 0x00, 0x00, 0x00, 0x00, 0x00, 0x00, 0x00, 0x00, 0x00,
  0x00, 0x00, 0x00, 0x00, 0x00, 0x00, 0x00, 0x00, 0x00, 0x00, 0x00, 0x00,
  0x00, 0x00, 0x00, 0x00, 0x00, 0x00, 0x00, 0x00, 0x00, 0x00, 0x00, 0x00,
  0x00, 0x00, 0x00, 0x00, 0x00, 0x00, 0x00, 0x00, 0x00, 0x00, 0x00, 0x00,
  0x00, 0x00, 0x00, 0x00, 0x00, 0x00, 0x00, 0x00, 0x00, 0x00, 0x00, 0x00,
  0x00, 0x00, 0x00, 0x00, 0x00, 0x00, 0x00, 0x00, 0x00, 0x00, 0x00, 0x00,
  0x00, 0x00, 0x00, 0x00, 0x00, 0x00, 0x00, 0x00, 0x00, 0x00, 0x00, 0x00,
  0x00, 0x00, 0x00, 0x00, 0x00, 0x00, 0x00, 0x00, 0x00, 0x00, 0x00, 0x00,
  0x00, 0x00, 0x00, 0x00, 0x00, 0x00, 0x00, 0x00, 0x00, 0x00, 0x00, 0x00,
  0x00, 0x00, 0x00, 0x00, 0x00, 0x00, 0x00, 0x00, 0x00, 0x00, 0x00, 0x00,
  0x00, 0x00, 0x00, 0x00, 0x00, 0x00, 0x00, 0x00, 0x00, 0x00, 0x00, 0x00,
  0x00, 0x00, 0x00, 0x00, 0x00, 0x00, 0x00, 0x00, 0x00, 0x00, 0x00, 0x00,
  0x00, 0x00, 0x00, 0x00, 0x00, 0x00, 0x00, 0x00, 0x00, 0x00, 0x00, 0x00,
  0x00, 0x00, 0x00, 0x00, 0x00, 0x00, 0x00, 0x00, 0x00, 0x00, 0x00, 0x00,
  0x00, 0x00, 0x00, 0x00, 0x00, 0x00, 0x00, 0x00, 0x00, 0x00, 0x00, 0x00,
  0x00, 0x00, 0x00, 0x00, 0x00, 0x00, 0x00, 0x00, 0x00, 0x00, 0x00, 0x00,
  0x00, 0x00, 0x00, 0x00, 0x00, 0x00, 0x00, 0x00, 0x00, 0x00, 0x00, 0x00,
  0x00, 0x00, 0x00, 0x00, 0x00, 0x00, 0x00, 0x00, 0x00, 0x00, 0x00, 0x00,
  0x00, 0x00, 0x00, 0x00, 0x00, 0x00, 0x00, 0x00, 0x00, 0x00, 0x00, 0x00,
  0x00, 0x00, 0x00, 0x00, 0x00, 0x00, 0x00, 0x00, 0x00, 0x00, 0x00, 0x00,
  0x00, 0x00, 0x00, 0x00, 0x00, 0x00, 0x00, 0x00, 0x00, 0x00, 0x00, 0x00,
  0x00, 0x00, 0x00, 0x00, 0x00, 0x00, 0x00, 0x00, 0x20, 0x00, 0x00, 0x00,
  0xb1, 0xda, 0x30, 0x3a, 0x3c, 0x53, 0x19, 0x3a, 0x93, 0xe6, 0x2a, 0x3a,
  0x1d, 0x96, 0xc5, 0x39, 0xa2, 0x32, 0x25, 0x3a, 0x11, 0x30, 0x2d, 0x3a,
  0x8f, 0x69, 0x1f, 0x3a, 0xd1, 0x96, 0x8d, 0x39, 0x2b, 0xda, 0x0e, 0x3a,
  0x08, 0xef, 0xfc, 0x39, 0x0c, 0x5a, 0x07, 0x3a, 0xba, 0x56, 0x5b, 0x3a,
  0x7c, 0x02, 0x0b, 0x3a, 0xc1, 0x67, 0xb2, 0x39, 0x69, 0x60, 0x71, 0x39,
  0xb1, 0xb2, 0xf1, 0x39, 0x13, 0x28, 0x1f, 0x3a, 0x8a, 0x32, 0x3e, 0x3a,
  0xd4, 0x0b, 0xc6, 0x39, 0xec, 0x52, 0x1e, 0x3a, 0x6a, 0xd7, 0x48, 0x3a,
  0x8f, 0x75, 0x02, 0x3a, 0x63, 0xc4, 0xfc, 0x39, 0x22, 0xcc, 0x08, 0x3a,
  0xe5, 0xc7, 0x04, 0x3a, 0xc0, 0xb4, 0xa3, 0x39, 0x09, 0xff, 0xac, 0x39,
  0x56, 0x80, 0x09, 0x3a, 0xaf, 0x22, 0x30, 0x3a, 0x9b, 0xf7, 0x53, 0x3a,
  0x35, 0xf7, 0x4f, 0x3a, 0xee, 0x50, 0xfc, 0x39, 0x28, 0x00, 0x00, 0x00,
  0x6d, 0x6f, 0x64, 0x65, 0x6c, 0x5f, 0x35, 0x2f, 0x63, 0x6f, 0x6e, 0x76,
  0x32, 0x64, 0x5f, 0x31, 0x35, 0x2f, 0x42, 0x69, 0x61, 0x73, 0x41, 0x64,
  0x64, 0x2f, 0x52, 0x65, 0x61, 0x64, 0x56, 0x61, 0x72, 0x69, 0x61, 0x62,
  0x6c, 0x65, 0x4f, 0x70, 0x00, 0x00, 0x00, 0x00, 0x01, 0x00, 0x00, 0x00,
  0x20, 0x00, 0x00, 0x00, 0x26, 0xff, 0xff, 0xff, 0x00, 0x00, 0x00, 0x01,
  0x14, 0x00, 0x00, 0x00, 0x34, 0x00, 0x00, 0x00, 0x04, 0x00, 0x00, 0x00,
  0x00, 0x00, 0x00, 0x09, 0x44, 0x00, 0x00, 0x00, 0x74, 0xfe, 0xff, 0xff,
  0x08, 0x00, 0x00, 0x00, 0x14, 0x00, 0x00, 0x00, 0x01, 0x00, 0x00, 0x00,
  0x00, 0x00, 0x00, 0x00, 0x00, 0x00, 0x00, 0x00, 0x00, 0x00, 0x00, 0x00,
  0x01, 0x00, 0x00, 0x00, 0x78, 0xac, 0x3a, 0x3c, 0x16, 0x00, 0x00, 0x00,
  0x6d, 0x6f, 0x64, 0x65, 0x6c, 0x5f, 0x35, 0x2f, 0x64, 0x65, 0x6e, 0x73,
  0x65, 0x5f, 0x36, 0x2f, 0x4d, 0x61, 0x74, 0x4d, 0x75, 0x6c, 0x00, 0x00,
  0x02, 0x00, 0x00, 0x00, 0x05, 0x00, 0x00, 0x00, 0x20, 0x00, 0x00, 0x00,
  0x8e, 0xff, 0xff, 0xff, 0x00, 0x00, 0x00, 0x01, 0x14, 0x00, 0x00, 0x00,
  0x30, 0x00, 0x00, 0x00, 0x03, 0x00, 0x00, 0x00, 0x00, 0x00, 0x00, 0x02,
  0x50, 0x00, 0x00, 0x00, 0xdc, 0xfe, 0xff, 0xff, 0x08, 0x00, 0x00, 0x00,
  0x10, 0x00, 0x00, 0x00, 0x01, 0x00, 0x00, 0x00, 0x00, 0x00, 0x00, 0x00,
  0x00, 0x00, 0x00, 0x00, 0x01, 0x00, 0x00, 0x00, 0xc3, 0xcb, 0xa9, 0x39,
  0x26, 0x00, 0x00, 0x00, 0x6d, 0x6f, 0x64, 0x65, 0x6c, 0x5f, 0x35, 0x2f,
  0x64, 0x65, 0x6e, 0x73, 0x65, 0x5f, 0x36, 0x2f, 0x42, 0x69, 0x61, 0x73,
  0x41, 0x64, 0x64, 0x2f, 0x52, 0x65, 0x61, 0x64, 0x56, 0x61, 0x72, 0x69,
  0x61, 0x62, 0x6c, 0x65, 0x4f, 0x70, 0x00, 0x00, 0x01, 0x00, 0x00, 0x00,
  0x05, 0x00, 0x00, 0x00, 0x00, 0x00, 0x16, 0x00, 0x1c, 0x00, 0x18, 0x00,
  0x17, 0x00, 0x10, 0x00, 0x0c, 0x00, 0x08, 0x00, 0x00, 0x00, 0x00, 0x00,
  0x00, 0x00, 0x07, 0x00, 0x16, 0x00, 0x00, 0x00, 0x00, 0x00, 0x00, 0x01,
  0x18, 0x00, 0x00, 0x00, 0x18, 0x00, 0x00, 0x00, 0x02, 0x00, 0x00, 0x00,
  0x00, 0x00, 0x00, 0x02, 0x4c, 0x00, 0x00, 0x00, 0x04, 0x00, 0x04, 0x00,
  0x04, 0x00, 0x00, 0x00, 0x39, 0x00, 0x00, 0x00, 0x6d, 0x6f, 0x64, 0x65,
  0x6c, 0x5f, 0x35, 0x2f, 0x67, 0x6c, 0x6f, 0x62, 0x61, 0x6c, 0x5f, 0x61,
  0x76, 0x65, 0x72, 0x61, 0x67, 0x65, 0x5f, 0x70, 0x6f, 0x6f, 0x6c, 0x69,
  0x6e, 0x67, 0x32, 0x64, 0x5f, 0x32, 0x2f, 0x4d, 0x65, 0x61, 0x6e, 0x2f,
  0x72, 0x65, 0x64, 0x75, 0x63, 0x74, 0x69, 0x6f, 0x6e, 0x5f, 0x69, 0x6e,
  0x64, 0x69, 0x63, 0x65, 0x73, 0x00, 0x00, 0x00, 0x01, 0x00, 0x00, 0x00,
  0x02, 0x00, 0x00, 0x00, 0x00, 0x00, 0x16, 0x00, 0x20, 0x00, 0x1c, 0x00,
  0x1b, 0x00, 0x14, 0x00, 0x10, 0x00, 0x0c, 0x00, 0x00, 0x00, 0x00, 0x00,
  0x08, 0x00, 0x07, 0x00, 0x16, 0x00, 0x00, 0x00, 0x00, 0x00, 0x00, 0x01,
  0x18, 0x00, 0x00, 0x00, 0x34, 0x00, 0x00, 0x00, 0x54, 0x00, 0x00, 0x00,
  0x01, 0x00, 0x00, 0x00, 0x00, 0x00, 0x00, 0x09, 0x68, 0x00, 0x00, 0x00,
  0x04, 0x00, 0x00, 0x00, 0xff, 0xff, 0xff, 0xff, 0x20, 0x00, 0x00, 0x00,
  0x20, 0x00, 0x00, 0x00, 0x03, 0x00, 0x00, 0x00, 0x0c, 0x00, 0x0c, 0x00,
  0x00, 0x00, 0x00, 0x00, 0x08, 0x00, 0x04, 0x00, 0x0c, 0x00, 0x00, 0x00,
  0x08, 0x00, 0x00, 0x00, 0x14, 0x00, 0x00, 0x00, 0x01, 0x00, 0x00, 0x00,
  0x80, 0xff, 0xff, 0xff, 0xff, 0xff, 0xff, 0xff, 0x00, 0x00, 0x00, 0x00,
  0x01, 0x00, 0x00, 0x00, 0x00, 0x00, 0x80, 0x3f, 0x19, 0x00, 0x00, 0x00,
  0x73, 0x65, 0x72, 0x76, 0x69, 0x6e, 0x67, 0x5f, 0x64, 0x65, 0x66, 0x61,
  0x75, 0x6c, 0x74, 0x5f, 0x69, 0x6e, 0x70, 0x75, 0x74, 0x5f, 0x37, 0x3a,
  0x30, 0x00, 0x00, 0x00, 0x04, 0x00, 0x00, 0x00, 0x01, 0x00, 0x00, 0x00,
  0x20, 0x00, 0x00, 0x00, 0x20, 0x00, 0x00, 0x00, 0x03, 0x00, 0x00, 0x00,
  0x04, 0x00, 0x00, 0x00, 0x4c, 0x00, 0x00, 0x00, 0x2c, 0x00, 0x00, 0x00,
  0x18, 0x00, 0x00, 0x00, 0x04, 0x00, 0x00, 0x00, 0xd0, 0xff, 0xff, 0xff,
  0x19, 0x00, 0x00, 0x00, 0x02, 0x00, 0x00, 0x00, 0x00, 0x00, 0x00, 0x19,
  0xe0, 0xff, 0xff, 0xff, 0x09, 0x00, 0x00, 0x00, 0x04, 0x00, 0x00, 0x00,
  0x00, 0x00, 0x00, 0x09, 0xf0, 0xff, 0xff, 0xff, 0x28, 0x00, 0x00, 0x00,
  0x02, 0x00, 0x00, 0x00, 0x00, 0x00, 0x00, 0x28, 0x0c, 0x00, 0x10, 0x00,
  0x0f, 0x00, 0x00, 0x00, 0x08, 0x00, 0x04, 0x00, 0x0c, 0x00, 0x00, 0x00,
  0x03, 0x00, 0x00, 0x00, 0x03, 0x00, 0x00, 0x00, 0x00, 0x00, 0x00, 0x03
};
unsigned int g_magic_wand_model_data_len = 11352;
